{
  "version": "1.0",
  "truncation": null,
  "padding": null,
  "added_tokens": [
    {
      "id": 0,
      "content": "<|endoftext|>",
      "single_word": false,
      "lstrip": false,
      "rstrip": false,
      "normalized": false,
      "special": true
    }
  ],
  "normalizer": null,
  "pre_tokenizer": {
    "type": "ByteLevel",
    "add_prefix_space": true,
    "trim_offsets": true,
    "use_regex": true
  },
  "post_processor": null,
  "decoder": {
    "type": "ByteLevel",
    "add_prefix_space": true,
    "trim_offsets": true,
    "use_regex": true
  },
  "model": {
    "type": "BPE",
    "dropout": null,
    "unk_token": null,
    "continuing_subword_prefix": null,
    "end_of_word_suffix": null,
    "fuse_unk": false,
    "byte_fallback": false,
    "ignore_merges": false,
    "vocab": {
      "<|endoftext|>": 0,
      "!": 1,
      "\"": 2,
      "#": 3,
      "$": 4,
      "%": 5,
      "&": 6,
      "'": 7,
      "(": 8,
      ")": 9,
      "*": 10,
      "+": 11,
      ",": 12,
      "-": 13,
      ".": 14,
      "/": 15,
      "0": 16,
      "1": 17,
      "2": 18,
      "3": 19,
      "4": 20,
      "5": 21,
      "6": 22,
      "7": 23,
      "8": 24,
      "9": 25,
      ":": 26,
      ";": 27,
      "<": 28,
      "=": 29,
      ">": 30,
      "?": 31,
      "@": 32,
      "A": 33,
      "B": 34,
      "C": 35,
      "D": 36,
      "E": 37,
      "F": 38,
      "G": 39,
      "H": 40,
      "I": 41,
      "J": 42,
      "K": 43,
      "L": 44,
      "M": 45,
      "N": 46,
      "O": 47,
      "P": 48,
      "Q": 49,
      "R": 50,
      "S": 51,
      "T": 52,
      "U": 53,
      "V": 54,
      "W": 55,
      "X": 56,
      "Y": 57,
      "Z": 58,
      "[": 59,
      "\\": 60,
      "]": 61,
      "^": 62,
      "_": 63,
      "`": 64,
      "a": 65,
      "b": 66,
      "c": 67,
      "d": 68,
      "e": 69,
      "f": 70,
      "g": 71,
      "h": 72,
      "i": 73,
      "j": 74,
      "k": 75,
      "l": 76,
      "m": 77,
      "n": 78,
      "o": 79,
      "p": 80,
      "q": 81,
      "r": 82,
      "s": 83,
      "t": 84,
      "u": 85,
      "v": 86,
      "w": 87,
      "x": 88,
      "y": 89,
      "z": 90,
      "{": 91,
      "|": 92,
      "}": 93,
      "~": 94,
      "¡": 95,
      "¢": 96,
      "£": 97,
      "¤": 98,
      "¥": 99,
      "¦": 100,
      "§": 101,
      "¨": 102,
      "©": 103,
      "ª": 104,
      "«": 105,
      "¬": 106,
      "®": 107,
      "¯": 108,
      "°": 109,
      "±": 110,
      "²": 111,
      "³": 112,
      "´": 113,
      "µ": 114,
      "¶": 115,
      "·": 116,
      "¸": 117,
      "¹": 118,
      "º": 119,
      "»": 120,
      "¼": 121,
      "½": 122,
      "¾": 123,
      "¿": 124,
      "À": 125,
      "Á": 126,
      "Â": 127,
      "Ã": 128,
      "Ä": 129,
      "Å": 130,
      "Æ": 131,
      "Ç": 132,
      "È": 133,
      "É": 134,
      "Ê": 135,
      "Ë": 136,
      "Ì": 137,
      "Í": 138,
      "Î": 139,
      "Ï": 140,
      "Ð": 141,
      "Ñ": 142,
      "Ò": 143,
      "Ó": 144,
      "Ô": 145,
      "Õ": 146,
      "Ö": 147,
      "×": 148,
      "Ø": 149,
      "Ù": 150,
      "Ú": 151,
      "Û": 152,
      "Ü": 153,
      "Ý": 154,
      "Þ": 155,
      "ß": 156,
      "à": 157,
      "á": 158,
      "â": 159,
      "ã": 160,
      "ä": 161,
      "å": 162,
      "æ": 163,
      "ç": 164,
      "è": 165,
      "é": 166,
      "ê": 167,
      "ë": 168,
      "ì": 169,
      "í": 170,
      "î": 171,
      "ï": 172,
      "ð": 173,
      "ñ": 174,
      "ò": 175,
      "ó": 176,
      "ô": 177,
      "õ": 178,
      "ö": 179,
      "÷": 180,
      "ø": 181,
      "ù": 182,
      "ú": 183,
      "û": 184,
      "ü": 185,
      "ý": 186,
      "þ": 187,
      "ÿ": 188,
      "Ā": 189,
      "ā": 190,
      "Ă": 191,
      "ă": 192,
      "Ą": 193,
      "ą": 194,
      "Ć": 195,
      "ć": 196,
      "Ĉ": 197,
      "ĉ": 198,
      "Ċ": 199,
      "ċ": 200,
      "Č": 201,
      "č": 202,
      "Ď": 203,
      "ď": 204,
      "Đ": 205,
      "đ": 206,
      "Ē": 207,
      "ē": 208,
      "Ĕ": 209,
      "ĕ": 210,
      "Ė": 211,
      "ė": 212,
      "Ę": 213,
      "ę": 214,
      "Ě": 215,
      "ě": 216,
      "Ĝ": 217,
      "ĝ": 218,
      "Ğ": 219,
      "ğ": 220,
      "Ġ": 221,
      "ġ": 222,
      "Ģ": 223,
      "ģ": 224,
      "Ĥ": 225,
      "ĥ": 226,
      "Ħ": 227,
      "ħ": 228,
      "Ĩ": 229,
      "ĩ": 230,
      "Ī": 231,
      "ī": 232,
      "Ĭ": 233,
      "ĭ": 234,
      "Į": 235,
      "į": 236,
      "İ": 237,
      "ı": 238,
      "Ĳ": 239,
      "ĳ": 240,
      "Ĵ": 241,
      "ĵ": 242,
      "Ķ": 243,
      "ķ": 244,
      "ĸ": 245,
      "Ĺ": 246,
      "ĺ": 247,
      "Ļ": 248,
      "ļ": 249,
      "Ľ": 250,
      "ľ": 251,
      "Ŀ": 252,
      "ŀ": 253,
      "Ł": 254,
      "ł": 255,
      "Ń": 256,
      "à¤": 257,
      "à®": 258,
      "à¦": 259,
      "à°": 260,
      "à²": 261,
      "à¯": 262,
      "à¥": 263,
      "Ġà¤": 264,
      "à§": 265,
      "à¯į": 266,
      "à±": 267,
      "Ġà¦": 268,
      "à³": 269,
      "Ġà®": 270,
      "à¤¾": 271,
      "Ġà°": 272,
      "à¦¾": 273,
      "Ġà²": 274,
      "à¥į": 275,
      "à¤°": 276,
      "à®¿": 277,
      "à¦°": 278,
      "à¯ģ": 279,
      "à¥ĩ": 280,
      "à§į": 281,
      "à®ķ": 282,
      "à§ĩ": 283,
      "à³į": 284,
      "à±į": 285,
      "à¦¿": 286,
      "à®¤": 287,
      "à¤¿": 288,
      "à°¿": 289,
      "Ġà¤ķ": 290,
      "à®°": 291,
      "à°¾": 292,
      "à²¿": 293,
      "à®Ł": 294,
      "à¤Ĥ": 295,
      "à¥Ģ": 296,
      "à®¾": 297,
      "à¤¨": 298,
      "à¤¤": 299,
      "à¦¨": 300,
      "à°°": 301,
      "à®ª": 302,
      "à±ģ": 303,
      "à¤ķ": 304,
      "à®²": 305,
      "à²°": 306,
      "à³ģ": 307,
      "à®®": 308,
      "à°Ĥ": 309,
      "à®©": 310,
      "à¦¯": 311,
      "à°¨": 312,
      "à²¾": 313,
      "à¤¯": 314,
      "à°²": 315,
      "à¥ĭ": 316,
      "à®±": 317,
      "čĊ": 318,
      "à²¦": 319,
      "à®¯": 320,
      "à¦ķ": 321,
      "à¦¤": 322,
      "à®³": 323,
      "à¤²": 324,
      "à¤¸": 325,
      "à¯Ī": 326,
      "à¦²": 327,
      "Ġà¤¸": 328,
      "à²¨": 329,
      "à²¤": 330,
      "Ġt": 331,
      "à¥¤": 332,
      "à®µ": 333,
      "à²²": 334,
      "he": 335,
      "à³Ĩ": 336,
      "à¤®": 337,
      "à¦¬": 338,
      "Ġà¤¹": 339,
      "Ġà¤®": 340,
      "à¦¼": 341,
      "Ġa": 342,
      "in": 343,
      "à²Ĺ": 344,
      "Ġà¤ª": 345,
      "à°ķ": 346,
      "à¤µ": 347,
      "à²µ": 348,
      "à¥Ī": 349,
      "à¦®": 350,
      "à²¯": 351,
      "Ġà®ª": 352,
      "à¤¹": 353,
      "à°¤": 354,
      "à¥ģ": 355,
      "er": 356,
      "à¦¸": 357,
      "à¦Ł": 358,
      "à°¯": 359,
      "à²Ĥ": 360,
      "à±ĭ": 361,
      "à§ģ": 362,
      "on": 363,
      "à°¦": 364,
      "Ġà¦¸": 365,
      "Ġà®ķ": 366,
      "Ġà®®": 367,
      "à²ķ": 368,
      "Ġà¦ķ": 369,
      "à¤¦": 370,
      "à¤ª": 371,
      "à®ļ": 372,
      "Ġthe": 373,
      "à°¡": 374,
      "à¥ĩà¤Ĥ": 375,
      "Ġà¦ª": 376,
      "Ġ(": 377,
      "à®ķà®³": 378,
      "à°®": 379,
      "Ġà¤ľ": 380,
      "à¤Ł": 381,
      "à°Ł": 382,
      "à®¨": 383,
      "Ġà®¤": 384,
      "Ġà®ĩ": 385,
      "Ġà¦¬": 386,
      "or": 387,
      "à°µ": 388,
      "à²¸": 389,
      "Ġà¦ı": 390,
      "à¤Ĺ": 391,
      "à¦¦": 392,
      "Ġà¤µ": 393,
      "à²³": 394,
      "an": 395,
      "à®£": 396,
      "Ġ1": 397,
      "Ġà®µ": 398,
      "à§ĭ": 399,
      "ed": 400,
      "à±ĩ": 401,
      "à°¸": 402,
      "en": 403,
      "Ġà¤ħ": 404,
      "Ġà®ħ": 405,
      "at": 406,
      "Ġà°ª": 407,
      "Ġà®ļ": 408,
      "à°Ĺ": 409,
      "à¤ľ": 410,
      "es": 411,
      "ar": 412,
      "Ġo": 413,
      "Ġà¤¨": 414,
      "âĢ": 415,
      "Ġw": 416,
      "Ġà¤¬": 417,
      "à¥Ĥ": 418,
      "à¯Ĩ": 419,
      "à±Ģ": 420,
      "à¯ĩ": 421,
      "Ġà°ķ": 422,
      "Ġs": 423,
      "à¦ª": 424,
      "Ġà¦®": 425,
      "is": 426,
      "al": 427,
      "it": 428,
      "à°ª": 429,
      "à¤¶": 430,
      "à²¡": 431,
      "à¤¡": 432,
      "Ġà¤¦": 433,
      "à§Ģ": 434,
      "à¦¶": 435,
      "Ġ2": 436,
      "Ġà°¸": 437,
      "Ġà¤°": 438,
      "nd": 439,
      "Ġà²®": 440,
      "Ġof": 441,
      "à¦Ĥ": 442,
      "à¦ľ": 443,
      "à¤·": 444,
      "à¥ĭà¤Ĥ": 445,
      "Ġf": 446,
      "à¤¬": 447,
      "Ġà²¸": 448,
      "à²Ł": 449,
      "Ġà¦¹": 450,
      "à¤£": 451,
      "Ġin": 452,
      "Ġc": 453,
      "Ġà°µ": 454,
      "à¯ĭ": 455,
      "à±Ĩ": 456,
      "à¤§": 457,
      "re": 458,
      "à²®": 459,
      "Ġà®¨": 460,
      "Ġà¤ī": 461,
      "à¤ļ": 462,
      "à¦Ĺ": 463,
      "Ġà¤Ĺ": 464,
      "à³ĩ": 465,
      "Ġà¤²": 466,
      "à¤¥": 467,
      "à®Ļ": 468,
      "ic": 469,
      "as": 470,
      "à®´": 471,
      "à¯Ĭ": 472,
      "Ġà¦ķà¦°": 473,
      "Ġà¦ħ": 474,
      "à¦ĩ": 475,
      "à®ªà®Ł": 476,
      "Ġb": 477,
      "à¦·": 478,
      "Ġand": 479,
      "à°¿.": 480,
      "à²Ĺà²³": 481,
      "à¯į.": 482,
      "Ġà²ķ": 483,
      "Ġà¤Ķ": 484,
      "Ġp": 485,
      "ing": 486,
      "Ġà¤Ķà¤°": 487,
      "Ġà¦¤": 488,
      "à°ļ": 489,
      "Ġà¤ı": 490,
      "Ġà°®": 491,
      "à¦¡": 492,
      "Ġà®Ĩ": 493,
      "Ġà²ħ": 494,
      "Ġ20": 495,
      "ion": 496,
      "à¦¼à§ĩ": 497,
      "Ġà§": 498,
      "ĠS": 499,
      "Ġà¤¤": 500,
      "à²ª": 501,
      "à¤¼": 502,
      "Ġà¤Ń": 503,
      "ro": 504,
      "à¦¹": 505,
      "Ġà¦¨": 506,
      "Ġà²ª": 507,
      "à±Ĥ": 508,
      "Ġà¤Ĩ": 509,
      "Ġà°¨": 510,
      "Ġà¦¦": 511,
      "à¦ļ": 512,
      "à¥Īà¥¤": 513,
      "Ġà°ħ": 514,
      "à¦§": 515,
      "âĢĮ": 516,
      "Ġà¦Ĩ": 517,
      "ĠA": 518,
      "Ġà¤ĩ": 519,
      "à¦Ľ": 520,
      "à¦£": 521,
      "à°¿à°Ĥ": 522,
      "à¯Ĥ": 523,
      "ĠC": 524,
      "Ġà¤¶": 525,
      "ĠT": 526,
      "Ġto": 527,
      "à¦¥": 528,
      "Ġà¤¯": 529,
      "le": 530,
      "Ġà²¹": 531,
      "Ġà®ī": 532,
      "Ġà¦ľ": 533,
      "à¦¼à¦¾": 534,
      "à¦Ń": 535,
      "Ġ19": 536,
      "à¤ı": 537,
      "Ġm": 538,
      "à¯į,": 539,
      "à³Ĭ": 540,
      "Ġà°ī": 541,
      "Ġd": 542,
      "à³Ĥ": 543,
      "Ġà®İ": 544,
      "Ġà°Ĺ": 545,
      "à¤ĸ": 546,
      "à±Ī": 547,
      "à²£": 548,
      "Ġà²¨": 549,
      "Ġà¦¯": 550,
      "ent": 551,
      "ou": 552,
      "Ġà¤ªà¤°": 553,
      "Ġà¤ıà¤ķ": 554,
      "à®µà®°": 555,
      "Ġh": 556,
      "ĠM": 557,
      "à¯ģ.": 558,
      "il": 559,
      "à¤°à¤¤": 560,
      "à¥Īà¤Ĥ": 561,
      "Ġà²¬": 562,
      "à³Ģ": 563,
      "à¯Ģ": 564,
      "Ġà°°": 565,
      "§à§": 566,
      "à²¬": 567,
      "Ġà²µ": 568,
      "ĠI": 569,
      "Ġà¦°": 570,
      "Ġà°ļ": 571,
      "à³ĭ": 572,
      "à¤Ń": 573,
      "à²·": 574,
      "à°ľ": 575,
      "Ġà¤¥": 576,
      "st": 577,
      "Ġà°¦": 578,
      "om": 579,
      "à¤Ī": 580,
      "à°¬": 581,
      "à±ģà°Ĥ": 582,
      "ol": 583,
      "Ġà¦ıà¦¬": 584,
      "Ġà°Ĩ": 585,
      "am": 586,
      "à§¦": 587,
      "à²¹": 588,
      "Ġ\"": 589,
      "Ġà¦ıà¦ķ": 590,
      "Ġà¤ļ": 591,
      "à°¶": 592,
      "el": 593,
      "ĠB": 594,
      "ĠP": 595,
      "à±ģ.": 596,
      "à°·": 597,
      "à³Ĩ.": 598,
      "Ġà¦¶": 599,
      "ch": 600,
      "Ġà¤ĩà¤¸": 601,
      "à¦ĸ": 602,
      "ad": 603,
      "Ġà¦¹à¦¯": 604,
      "Ġà¦ī": 605,
      "Ġà¦Ĺ": 606,
      "à°§": 607,
      "à²¶": 608,
      "ct": 609,
      "iv": 610,
      "à°£": 611,
      "Ġà²°": 612,
      "Ġà²Ĩ": 613,
      "à²ļ": 614,
      "à¦ĵ": 615,
      "à¤¾à¤Ĥ": 616,
      "Ġà°¤": 617,
      "à³įâĢĮ": 618,
      "Ġà¤ķà¤°": 619,
      "à²ľ": 620,
      "à±Ĭ": 621,
      "ur": 622,
      "Ġà®İà®©": 623,
      "Ġà¦ªà¦°": 624,
      "à°¹": 625,
      "ĠH": 626,
      "ation": 627,
      "à³ģ.": 628,
      "à²§": 629,
      "à²¦à²°": 630,
      "Ġà°ľ": 631,
      "00": 632,
      "Ġwas": 633,
      "Ġl": 634,
      "ĠThe": 635,
      "et": 636,
      "à²¿à²Ĥ": 637,
      "Ġà²ĩ": 638,
      "Ġà¦ļ": 639,
      "ĠR": 640,
      "ig": 641,
      "à¤¾à¥¤": 642,
      "Ġ201": 643,
      "Ġà°¬": 644,
      "à¤«": 645,
      "Ġà°²": 646,
      "Ġà²¤": 647,
      "ĠD": 648,
      "Ġà®Ĵ": 649,
      "ir": 650,
      "Ġà§§à§": 651,
      "à¥ĥ": 652,
      "à§ĥ": 653,
      "Ġà¦ĵ": 654,
      "Ġre": 655,
      "Ġà®®à®±": 656,
      "im": 657,
      "ĠL": 658,
      "Ġfor": 659,
      "à§ĩà¥¤": 660,
      "Ġon": 661,
      "Ġà²®à²¤": 662,
      "ay": 663,
      "Ġà¦ĩ": 664,
      "ce": 665,
      "à¥ī": 666,
      "Ġà®ĩà®°": 667,
      "à§Ĥ": 668,
      "Ġà¤«": 669,
      "Ġn": 670,
      "ĠG": 671,
      "id": 672,
      "à®ķà®ª": 673,
      "Ġà¤¸à¤®": 674,
      "Ġà°īà°¨": 675,
      "Ġà¦Ń": 676,
      "ĠN": 677,
      "à¤¤à¤°": 678,
      "ot": 679,
      "Ġth": 680,
      "à®Łà®¤": 681,
      "ers": 682,
      "ra": 683,
      "à²¦à²²": 684,
      "Ġe": 685,
      "Ġà²¦": 686,
      "ut": 687,
      "ĠF": 688,
      "à®±à®¤": 689,
      "à²µà²°": 690,
      "Ġà¦¸à¦®": 691,
      "Ġà²İ": 692,
      "Ġà®ĩà®¨": 693,
      "à¥Į": 694,
      "à¦ī": 695,
      "Ġà°ĩ": 696,
      "à±įâĢĮ": 697,
      "à³Ī": 698,
      "à°Ń": 699,
      "us": 700,
      "Ġ-": 701,
      "à¦«": 702,
      "à²¥": 703,
      "Ġà¤¯à¤¹": 704,
      "Ġà¦Ľ": 705,
      "Ġà¦ıà¦ķà¦Ł": 706,
      "à±ģ,": 707,
      "âĢĵ": 708,
      "à¤ªà¤¨": 709,
      "),": 710,
      "à¥Īà¤Ĥà¥¤": 711,
      "Ġg": 712,
      "ĠW": 713,
      "à°¥": 714,
      "ter": 715,
      "ly": 716,
      "em": 717,
      "à¦°à¦¤": 718,
      "Ġà¤ĸ": 719,
      "un": 720,
      "Ġà¦«": 721,
      "Ġà¤ħà¤¨": 722,
      "Ġà¦¥": 723,
      "¯à§": 724,
      "Ġà¤Ĺà¤¯": 725,
      "ith": 726,
      "à¤°à¤ķ": 727,
      "Ġà²Ĺ": 728,
      "Ġat": 729,
      "à¤ĩ": 730,
      "à²µà²¨": 731,
      "Ġà¤īà¤¨": 732,
      "Ġà§¨": 733,
      "Ġ200": 734,
      "Ġas": 735,
      "Ġis": 736,
      "à¤ģ": 737,
      "Ġà¥": 738,
      "à¤°à¤£": 739,
      "à®©à®°": 740,
      "her": 741,
      "Ġà¦ľà¦¨": 742,
      "ĠE": 743,
      "à®¤à®²": 744,
      "à®¯à®²": 745,
      "Ġà®īà®³": 746,
      "ow": 747,
      "Ġà¦²": 748,
      "Ġby": 749,
      "ul": 750,
      "à¦¼à¥¤": 751,
      "ist": 752,
      "um": 753,
      "Ġà¦ħà¦¨": 754,
      "Ġwith": 755,
      "Ġbe": 756,
      "ĠJ": 757,
      "à°³": 758,
      "à¤¿à¤Ĥ": 759,
      "à®¸": 760,
      "à³Ĭà²Ĥ": 761,
      "à¤µà¤°": 762,
      "ag": 763,
      "ĠO": 764,
      "à§¦à§": 765,
      "th": 766,
      "Ġ3": 767,
      "Ġà²ľ": 768,
      "and": 769,
      "à®Łà®®": 770,
      "res": 771,
      "Ġà°Ń": 772,
      "à¦ł": 773,
      "à®°à®®": 774,
      "Ġà®Ĵà®°": 775,
      "Ġà®ĩà®¤": 776,
      "Ġst": 777,
      "à®ªà®¤": 778,
      "os": 779,
      "à¦ı": 780,
      "Ġà²ī": 781,
      "à²Ń": 782,
      "à¦°à¦£": 783,
      "à°¾à°Ĥ": 784,
      "Ġ5": 785,
      "Ġà®ħà®®": 786,
      "à¦ľà¦¨": 787,
      "à¤¾,": 788,
      "Ġà¤¡": 789,
      "Ġà°¶": 790,
      "Ġà²¶": 791,
      "ac": 792,
      "à²¯à²¨": 793,
      "Ġà¤īà¤¸": 794,
      "à¥Ģà¤Ĥ": 795,
      "rom": 796,
      "ĠIn": 797,
      "ri": 798,
      "à®ķà®®": 799,
      "est": 800,
      "Ġà¤Ł": 801,
      "ĠU": 802,
      "Ġà¤īà¤¤": 803,
      "à®³à®¤": 804,
      "ĠK": 805,
      "à®µà®¤": 806,
      "Ġà¦ĸ": 807,
      "Ġà²Ĵ": 808,
      "à¤ł": 809,
      "à¥Ī,": 810,
      "'s": 811,
      "Ġwh": 812,
      "Ġà¦¡": 813,
      "à®ķà®°": 814,
      "ver": 815,
      "Ġ10": 816,
      "à°«": 817,
      "à°¿,": 818,
      "Ġà®Ĩà®ķ": 819,
      "à§ĩ,": 820,
      "Ġà°Ī": 821,
      "à²¤à²¦": 822,
      "Ġà®ħà®°": 823,
      "Ġà®µà®°": 824,
      "à±Ĩà°Ĥ": 825,
      "à¤ķà¤°": 826,
      "à¦°à¦ķ": 827,
      "op": 828,
      "à¥¦": 829,
      "à®¯à®°": 830,
      "oc": 831,
      "à®ķà®¤": 832,
      "Ġan": 833,
      "Ġhe": 834,
      "Ġà§§à§¯à§": 835,
      "Ġà®Ĩà®£": 836,
      "Ġà¦Ł": 837,
      "ity": 838,
      "à²Ĺà²³à²¨": 839,
      "Ġà°İ": 840,
      "à¦¬à¦°": 841,
      "ab": 842,
      "Ġal": 843,
      "à¦ĵà¦¯": 844,
      "à®¯à®¤": 845,
      "Ġcon": 846,
      "à®ªà®°": 847,
      "Ġde": 848,
      "à¤Ĩ": 849,
      "art": 850,
      "19": 851,
      "Ġà²Ń": 852,
      "à¤¾à¤ģ": 853,
      "Ġà¤®à¤¹": 854,
      "Ġà¤ħà¤§": 855,
      "à®©à®¤": 856,
      "Ġfrom": 857,
      "à¦ŀ": 858,
      "Ġà²ļ": 859,
      "Ġà¦ıà¦ĩ": 860,
      "Ġà²Ī": 861,
      "à®¯à®®": 862,
      "Ġà°¹": 863,
      "Ġà®ħà®¤": 864,
      "Ġà®ķà®²": 865,
      "Ġà¤¬à¤¨": 866,
      "à¦Ļ": 867,
      "à®Łà®©": 868,
      "Ġv": 869,
      "Ġà¤ķà¤°à¤¨": 870,
      "à²¯à²²": 871,
      "ia": 872,
      "à¤°à¤¸": 873,
      "Ġà®ķà®Ł": 874,
      "à²¤à²°": 875,
      "Ġà¤ķà¤°à¤¤": 876,
      "à°²à°¨": 877,
      "ear": 878,
      "Ġà¤ħà¤ªà¤¨": 879,
      "à¦¤à¦°": 880,
      "à¤°à¤®": 881,
      "Ġse": 882,
      "ort": 883,
      "ate": 884,
      "ain": 885,
      "Ġà®ĩà®µà®°": 886,
      "up": 887,
      "ber": 888,
      "av": 889,
      "à®²à®¤": 890,
      "à°ķà°°": 891,
      "ĠSt": 892,
      "à¯ģ,": 893,
      "Ġà®®à®ķ": 894,
      "à§Ī": 895,
      "Ġpro": 896,
      "igh": 897,
      "à¤ĵ": 898,
      "Ġà°Ĵ": 899,
      "ak": 900,
      "Ġà¤µà¤°": 901,
      "ies": 902,
      "ĠâĢĵ": 903,
      "à²¾à²Ĥ": 904,
      "Ġà¤°à¤¹": 905,
      "à®¤à®¤": 906,
      "à¦ģ": 907,
      "à¦¾à¦Ĥ": 908,
      "à°Ĥ,": 909,
      "ian": 910,
      "ub": 911,
      "à¤Ľ": 912,
      "Ġ4": 913,
      "Ġcom": 914,
      "Ġthat": 915,
      "ill": 916,
      "Ġà¤ªà¤¹": 917,
      "20": 918,
      "ew": 919,
      "Ġ'": 920,
      "à±Ģ.": 921,
      "à®³à®°": 922,
      "à¤Łà¤°": 923,
      "à®¿,": 924,
      "Ġ18": 925,
      "ap": 926,
      "à³ĥ": 927,
      "à¤ľà¤¨": 928,
      "à®ķà®µ": 929,
      "Ġà°ħà°¨": 930,
      "à³Ĩà²Ĥ": 931,
      "à¤¼à¤¾": 932,
      "à²¸à²²": 933,
      "à°µà°°": 934,
      "Ġà®ªà®²": 935,
      "ud": 936,
      "à°¬à°¡": 937,
      "od": 938,
      "§à¥": 939,
      "à³ģ,": 940,
      "Ġà®Ĭ": 941,
      "Ġà¤§": 942,
      "qu": 943,
      "ated": 944,
      "ĠV": 945,
      "Ġ199": 946,
      "if": 947,
      "ov": 948,
      "Ġà¤ĺ": 949,
      "à¤ªà¤°": 950,
      "our": 951,
      "Ġà°¸à°®": 952,
      "ip": 953,
      "Ġà®ħà®±": 954,
      "ary": 955,
      "à®Łà®°": 956,
      "à±ĥ": 957,
      "à°°à°¤": 958,
      "à²ĸ": 959,
      "Ġà¤ĩà¤¸à¤ķ": 960,
      "Ġà®ªà®Ł": 961,
      "ug": 962,
      "à¤¹à¤°": 963,
      "à¦ªà¦°": 964,
      "à¤¯à¤ķ": 965,
      "à±Į": 966,
      "à°µà°¸": 967,
      "all": 968,
      "à°²à°²": 969,
      "à¤¯à¤°": 970,
      "Ġhis": 971,
      "à®ķà®²": 972,
      "ive": 973,
      "Ġà°Ĵà°ķ": 974,
      "Ġà¤īà¤ª": 975,
      "og": 976,
      "à®ľ": 977,
      "à¤¶à¤¨": 978,
      "Ġ7": 979,
      "à®¯à®©": 980,
      "à²ķà²°": 981,
      "Ġit": 982,
      "ant": 983,
      "Ġà®¤à®®": 984,
      "ld": 985,
      "Ġà§¨à§¦à§": 986,
      "Ġ6": 987,
      "à¤°à¤¦": 988,
      "Ġà¤ķà¤¹": 989,
      "à¥Ģà¥¤": 990,
      "ard": 991,
      "ment": 992,
      "se": 993,
      "à¥Ģ,": 994,
      "Ġr": 995,
      "Ġà°¡": 996,
      "Ġà®ĩà®²": 997,
      "Ġà¦®à¦§": 998,
      "Ġà²¯": 999,
      "Ġà¦§": 1000,
      "à±į,": 1001,
      "ere": 1002,
      ").": 1003,
      "à®Łà®ª": 1004,
      "Ġà¤µà¤¹": 1005,
      "Ġà¤Ľ": 1006,
      "à²°à²¦": 1007,
      "à®¤à®®": 1008,
      "ich": 1009,
      "Ġà²ħà²µà²°": 1010,
      "à°¯à°¨": 1011,
      "Ġà¦ıà¦Ł": 1012,
      "à¦¶à¦¨": 1013,
      "à¥ĩà¥¤": 1014,
      "à°ĸ": 1015,
      "à®³à®®": 1016,
      "à§¨": 1017,
      "Ġà®°": 1018,
      "Ġà³": 1019,
      "..": 1020,
      "à¦¯à¦¬": 1021,
      "Ġà¦ıà¦°": 1022,
      "Ġà¦ħà¦¬": 1023,
      "à±ĩà°Ĥ": 1024,
      "ep": 1025,
      "à°°à°ķ": 1026,
      "à¤¢": 1027,
      "ess": 1028,
      "Ġà®ħà®²": 1029,
      "à¤¸à¤°": 1030,
      "und": 1031,
      "end": 1032,
      "Ġor": 1033,
      "à²Ĺà²³à²²": 1034,
      "Ġà¤¤à¤ķ": 1035,
      "à¤¼à¥Ģ": 1036,
      "Ġà¤¨à¤¹": 1037,
      "à®°à®¤": 1038,
      "à¤Ĺà¤°": 1039,
      "Ġà¤īà¤¨à¤ķ": 1040,
      "ine": 1041,
      "ial": 1042,
      "Ġà®ı": 1043,
      "à¤ķà¤¤": 1044,
      "Ġà¤¤à¤¥": 1045,
      "Ġà®¨à®Ł": 1046,
      "à²¯à²µ": 1047,
      "ge": 1048,
      "à®ŀ": 1049,
      "à²°à²¤": 1050,
      "à§Į": 1051,
      "Ġwere": 1052,
      "à²°à²µ": 1053,
      "à¤¯à¤®": 1054,
      "à¤¯à¤¨": 1055,
      "à¦¿à¦Ĥ": 1056,
      "Ġà°¯": 1057,
      "ell": 1058,
      "Ġà®µà®´": 1059,
      "à³ģà²Ĥ": 1060,
      "à°²à°¯": 1061,
      "ight": 1062,
      "Ġà®ķà®£": 1063,
      "Ġà®Ĭà®°": 1064,
      "Ġpl": 1065,
      "ust": 1066,
      "Ġà¤ĩà¤¨": 1067,
      "à®¤à®ª": 1068,
      "ish": 1069,
      "à®²à®®": 1070,
      "Ġk": 1071,
      "Ġ202": 1072,
      "Ġà²ĩà²¦": 1073,
      "à®Łà®Ļ": 1074,
      "Ġà²²": 1075,
      "Ġà¤²à¤Ĺ": 1076,
      "ĠCh": 1077,
      "ĠâĢ": 1078,
      "Ġà®ĩà®¯": 1079,
      "à®¤à®°": 1080,
      "à²¿,": 1081,
      "Ġà®īà®°": 1082,
      "à¤¬à¤°": 1083,
      "ĠUn": 1084,
      "ong": 1085,
      "ect": 1086,
      "à®¤à®©": 1087,
      "Ġà¦Ĩà¦°": 1088,
      "ok": 1089,
      "Ġ197": 1090,
      "Ġà®ħà®µà®°": 1091,
      "à¦°à¦¸": 1092,
      "à¦¥à¦®": 1093,
      "ical": 1094,
      "à°¯à°µà°¸": 1095,
      "ast": 1096,
      "à§İ": 1097,
      "à®¤à®µ": 1098,
      "Ġ8": 1099,
      "à¤ī": 1100,
      "à³Ĩ,": 1101,
      "Ġà²ªà²°": 1102,
      "à³¦": 1103,
      "ĠHe": 1104,
      "ore": 1105,
      "Ġà°Ł": 1106,
      "à¤²à¤¨": 1107,
      "Ġà®ķà®°": 1108,
      "oun": 1109,
      "Ġ9": 1110,
      "ec": 1111,
      "à¦¾à¦ģ": 1112,
      "Ġch": 1113,
      "ric": 1114,
      "ĠAr": 1115,
      "à¦¬à¦¨": 1116,
      "Ġà¤ĵ": 1117,
      "Ġà°«": 1118,
      "Ġà®ľ": 1119,
      "Ġà¥§à¥": 1120,
      "à°²à°ķ": 1121,
      "ork": 1122,
      "ost": 1123,
      "à¤¬à¤¸": 1124,
      "Ġle": 1125,
      "à²¤à²µ": 1126,
      "000": 1127,
      "Ġà®ļà®®": 1128,
      "à¥ĩ,": 1129,
      "Ġex": 1130,
      "à¤¸à¤®": 1131,
      "ord": 1132,
      "à°¤à°¨": 1133,
      "Ġà¦ħà¦Ń": 1134,
      "Ġ198": 1135,
      "Ġà²ħà²¨": 1136,
      "à®µà®©": 1137,
      "à°Łà°°": 1138,
      "Ġà¤ªà¤¹à¤²": 1139,
      "cl": 1140,
      "à¦ĩà¦¨": 1141,
      "Ġà¤Ĩà¤§": 1142,
      "ff": 1143,
      "ran": 1144,
      "ĠIt": 1145,
      "à¦īà¦¨": 1146,
      "Ġ15": 1147,
      "à¤°à¤¹": 1148,
      "à¦®à¦¨": 1149,
      "Ġres": 1150,
      "à°°à°®": 1151,
      "Ġà¤ħà¤²": 1152,
      "à¦²à¦¨": 1153,
      "à®µà®Ł": 1154,
      "Ġà¦īà¦ª": 1155,
      "Ġà®ªà®ķ": 1156,
      "à¦¼à¦¿": 1157,
      "à¤²à¤¯": 1158,
      "pl": 1159,
      "Ġà®ħà®©": 1160,
      "à²®à²¨": 1161,
      "Ġwhich": 1162,
      "mer": 1163,
      "Ġà®ħà®Ł": 1164,
      "Ġà¦ļà¦²": 1165,
      "iz": 1166,
      "à°¤à°°": 1167,
      "Ġà®ħà®°à®ļ": 1168,
      "à§§à§": 1169,
      "à¤ĺ": 1170,
      "à¦°à¦¹": 1171,
      "Ġà¦ĺ": 1172,
      "à²°à²£": 1173,
      "Ġà§¨à§¦à§§à§": 1174,
      "ational": 1175,
      "Ġare": 1176,
      "Ġà¤ıà¤µ": 1177,
      "à¦°à¦®": 1178,
      "Ġà¦®à¦¨": 1179,
      "ction": 1180,
      "Ġà¦¹à¦²": 1181,
      "à²¨à²²": 1182,
      "Ġ,": 1183,
      "ure": 1184,
      "à²°à²®": 1185,
      "ame": 1186,
      "Ġà¤īà¤¸à¤ķ": 1187,
      "Ġun": 1188,
      "Ġà¦ķà¦°à¦¤": 1189,
      "à¦°à¦¨": 1190,
      "Ġà¤ľà¤¨": 1191,
      "à¦°à¦¥à¦®": 1192,
      "à¤µà¤¨": 1193,
      "à¤¸à¤¨": 1194,
      "à¤µà¤¤": 1195,
      "Ġà®ªà®°": 1196,
      "Ġà®¤à®²": 1197,
      "Ġhad": 1198,
      "à¤ŀ": 1199,
      "à®¯à®ª": 1200,
      "à¦·à¦£": 1201,
      "Ġà¦¸à¦®à¦¯": 1202,
      "à§«": 1203,
      "à®ķà®´": 1204,
      "ack": 1205,
      "Ġà¤ĳ": 1206,
      "à¤ļà¤¨": 1207,
      "Ġà¤¸à¤ķà¤¤": 1208,
      "à¤ħ": 1209,
      "ry": 1210,
      "uc": 1211,
      "à±Ĭà°Ĥ": 1212,
      "à¦°à¦¦": 1213,
      "Ġsh": 1214,
      "à®Łà®ķ": 1215,
      "Ġà®Ĩà®®": 1216,
      "Ġsp": 1217,
      "à¤²à¤¤": 1218,
      "Ġà®Ł": 1219,
      "à¤®à¤¨": 1220,
      "Ġy": 1221,
      "Ġà®ļà®Ł": 1222,
      "irst": 1223,
      "à¤¸à¤ķ": 1224,
      "à§©": 1225,
      "à¤¯à¤¤": 1226,
      "à²«": 1227,
      "Ġà°ı": 1228,
      "Ġà²¸à²®": 1229,
      "Ġà²Ĩà²°": 1230,
      "Ġà°ªà°°": 1231,
      "à°ªà°¤": 1232,
      "fter": 1233,
      "so": 1234,
      "à²²à²µ": 1235,
      "à²°à²ķ": 1236,
      "à°ł": 1237,
      "Ġcl": 1238,
      "ue": 1239,
      "à®Ĩ": 1240,
      "à¥ĩà¤Ĥ,": 1241,
      "à°·à°¨": 1242,
      "age": 1243,
      "à°¾,": 1244,
      "à®±à®©": 1245,
      "ire": 1246,
      "à¥Īà¤Ĥ,": 1247,
      "pp": 1248,
      "à¦ĺ": 1249,
      "Ġà°ĩà°¦": 1250,
      "ass": 1251,
      "ign": 1252,
      "à®·": 1253,
      "à²°à²²": 1254,
      "erv": 1255,
      "Ġà¤¬à¤¹": 1256,
      "Ġà°ľà°¨": 1257,
      "Ġà¤ķà¤®": 1258,
      "à®£à®®": 1259,
      "Ġà¥¨": 1260,
      "ice": 1261,
      "à¤ĸà¤£": 1262,
      "à¤®à¤ķ": 1263,
      "à¤¦à¤°": 1264,
      "ie": 1265,
      "Ġcomp": 1266,
      "à®µà®±": 1267,
      "Ġar": 1268,
      "out": 1269,
      "à®±à®ª": 1270,
      "à¦²à¦ķ": 1271,
      "Ġpart": 1272,
      "ide": 1273,
      "to": 1274,
      "à¤¼à¤¿": 1275,
      "à§®": 1276,
      "à°¨à°¦": 1277,
      "Ġà¤¸à¤°": 1278,
      "hed": 1279,
      "à®®à®©": 1280,
      "à²¦à²¨": 1281,
      "ivers": 1282,
      "Ġ17": 1283,
      "à¤µà¤¸": 1284,
      "Ġà¤Ĺà¤Ī": 1285,
      "Ġà¤Ī": 1286,
      "Ġà¤ħà¤°": 1287,
      "Ġà¦Ĩà¦²": 1288,
      "§à³": 1289,
      "à°¯à°ķ": 1290,
      "ence": 1291,
      "Ġwhe": 1292,
      "Ġà°¤à°°": 1293,
      "à§ª": 1294,
      "à³į,": 1295,
      "à°¦à°°": 1296,
      "à§¬": 1297,
      "Ġfirst": 1298,
      "man": 1299,
      "ĠY": 1300,
      "à¦ķà¦°": 1301,
      "Ġà¦¬à¦²": 1302,
      "à¤°à¤µ": 1303,
      "Ġà¤¸à¤¬à¤¸": 1304,
      "Ġà¦°à¦¯": 1305,
      "à¤Łà¤¨": 1306,
      "ens": 1307,
      "à¥ĩ.": 1308,
      "Ġà¤¸à¤°à¤ķ": 1309,
      "own": 1310,
      "à¦¤à¦¨": 1311,
      "à°¡à°²": 1312,
      "Ġà¤¸à¤®à¤¯": 1313,
      "Ġà¦ķà¦®": 1314,
      "Ġà®¤à®©": 1315,
      "âĢį": 1316,
      "Ġro": 1317,
      "Ġà²«": 1318,
      "à¦¤à¦®": 1319,
      "Ġà¤īà¤¦": 1320,
      "Ġà®ªà®£": 1321,
      "Ġà¤ħà¤Ń": 1322,
      "ition": 1323,
      "port": 1324,
      "Ġ196": 1325,
      "Ġà°Ĩà°°": 1326,
      "ang": 1327,
      "10": 1328,
      "à¤·à¤£": 1329,
      "ind": 1330,
      "ree": 1331,
      "Ġà¤ľà¤¬": 1332,
      "à²¸à²°": 1333,
      "ĠAl": 1334,
      "Ġà¦ıà¦ķà¦ľà¦¨": 1335,
      "Ġà¦ĩà¦¨": 1336,
      "à¦¯à¦¨": 1337,
      "Ġà®µà®ķ": 1338,
      "ubl": 1339,
      "à¦°à¦¬": 1340,
      "Ġà¦ļà¦²à¦ļ": 1341,
      "Ġà®²": 1342,
      "à¦¯à¦¬à¦¹": 1343,
      "Ġà®ªà®¤": 1344,
      "Ġalso": 1345,
      "Ġà°Ĩà°®": 1346,
      "âĢĻ": 1347,
      "Ġà®ªà®¯à®©": 1348,
      "Ġà®®à®©": 1349,
      "à¤¼à¥ĩ": 1350,
      "Ġà¦Ĩà¦¨": 1351,
      "Ġà¦īà¦¦": 1352,
      "Ġà¦ĵà¦¯": 1353,
      "rit": 1354,
      "à¤¨à¤°": 1355,
      "Ġà¤ħà¤¸": 1356,
      "à°°à°£": 1357,
      "ĠAn": 1358,
      "ous": 1359,
      "ome": 1360,
      "à¤°à¤¯": 1361,
      "ĠTh": 1362,
      "à²ľà²¨": 1363,
      "wo": 1364,
      "Ġà®Ĳ": 1365,
      "à®Łà®²": 1366,
      "Ġà¤¶à¤¹à¤°": 1367,
      "Ġher": 1368,
      "à®°à®ª": 1369,
      "Ġ195": 1370,
      "Ġhas": 1371,
      "ach": 1372,
      "Ġà®ĵ": 1373,
      "amp": 1374,
      "Ġà§¨à§¦": 1375,
      "à®³à®©": 1376,
      "Ġà¦¬à¦°": 1377,
      "Ġà¤¸à¤¹": 1378,
      "Ġà¦ħà¦¬à¦¸": 1379,
      "Ġ2011": 1380,
      "à®²à®ķ": 1381,
      "Ġcont": 1382,
      "à¦¾,": 1383,
      "à¤µà¤²": 1384,
      "à¤ĥ": 1385,
      "ik": 1386,
      "à¥¦à¥": 1387,
      "Ġ12": 1388,
      "à¦ªà¦¨": 1389,
      "à¦¯à¦®": 1390,
      "Ġte": 1391,
      "ime": 1392,
      "à§§": 1393,
      "à¯Ī,": 1394,
      "Ġwho": 1395,
      "à§Ń": 1396,
      "à¤°à¤Ń": 1397,
      "¯à¥": 1398,
      "à¦ķà¦Ł": 1399,
      "à®³à®µ": 1400,
      "Ġà¤ħà¤ķ": 1401,
      "ult": 1402,
      "Ġà¤ķà¤Ī": 1403,
      "à¦¼à§ĭ": 1404,
      "Ġà¤¬à¤¡": 1405,
      "Ġà°¸à°°": 1406,
      "ave": 1407,
      "à¦¼,": 1408,
      "con": 1409,
      "à°¨à°°": 1410,
      "à¤Ĺà¤¤": 1411,
      "à²¥à²µ": 1412,
      "Ġà²ľà²¨": 1413,
      "ther": 1414,
      "à³Į": 1415,
      "à²¿.": 1416,
      "Ġ16": 1417,
      "orn": 1418,
      "à¤³": 1419,
      "à°°à°Ń": 1420,
      "ress": 1421,
      "Ġ0": 1422,
      "à®ĩ": 1423,
      "à®¿.": 1424,
      "à²Ĺà²°": 1425,
      "ib": 1426,
      "à¤¨à¤ķ": 1427,
      "Ġà°ľà°°": 1428,
      "ite": 1429,
      "ĠMar": 1430,
      "à¦ĸà¦¨": 1431,
      "Ġà¤ħà¤®": 1432,
      "Ġà®īà®±": 1433,
      "we": 1434,
      "ory": 1435,
      "tern": 1436,
      "Ġà¦ħà¦°": 1437,
      "à¤®à¤¤": 1438,
      "à¤¡à¤²": 1439,
      "ĠOn": 1440,
      "à®µà®®": 1441,
      "à²¯à²ķ": 1442,
      "Ġà¤°à¤ĸ": 1443,
      "ph": 1444,
      "Ġ194": 1445,
      "à²¬à²°": 1446,
      "te": 1447,
      "Ġà²¡": 1448,
      "Ġà²Ł": 1449,
      "Ġnot": 1450,
      "à¦ıà¦°": 1451,
      "à¦Ĩ": 1452,
      "Ġà¤ªà¤¤": 1453,
      "Ġà¦¹à¦¤": 1454,
      "à°Ĥ.": 1455,
      "à²Łà²°": 1456,
      "à²£à²¦": 1457,
      "Ġà®¹": 1458,
      "à¦¸à¦²": 1459,
      "ru": 1460,
      "Ġtheir": 1461,
      "Ġ.": 1462,
      "à²¯à²¦": 1463,
      "land": 1464,
      "Ġj": 1465,
      "à¦¾à¥¤": 1466,
      "à¦°à¦Ł": 1467,
      "à¤ķà¤²": 1468,
      "ater": 1469,
      "Ġà®Ĵà®©": 1470,
      "à¦²à¦¯": 1471,
      "à¥ģà¤Ĥ": 1472,
      "Ġà°ķà°²": 1473,
      "per": 1474,
      "à¦¸à¦¨": 1475,
      "à®ļà®°": 1476,
      "à°¸à°°": 1477,
      "ations": 1478,
      "Ġà²¬à²³": 1479,
      "ates": 1480,
      "à°µà°²": 1481,
      "Ġ14": 1482,
      "ember": 1483,
      "over": 1484,
      "Ġsc": 1485,
      "à¦ªà¦¤": 1486,
      "for": 1487,
      "ts": 1488,
      "Ġà¤¸à¤Ń": 1489,
      "Ġ11": 1490,
      "Ġà¦¦à¦²": 1491,
      "Ġà¤Ĩà¤¯": 1492,
      "oll": 1493,
      "Ġone": 1494,
      "gan": 1495,
      "à±ĭ,": 1496,
      "à°Ĺà°°": 1497,
      "ade": 1498,
      "az": 1499,
      "ron": 1500,
      "à®±à®¨": 1501,
      "iversity": 1502,
      "Ġab": 1503,
      "à®ļà®®": 1504,
      "Ġwork": 1505,
      "ics": 1506,
      "ĠCom": 1507,
      "Ġà²µà²°": 1508,
      "à¤ªà¤¤": 1509,
      "Ġà®ħà®£": 1510,
      "Ġà°ķà°³": 1511,
      "Ġà²īà²¤": 1512,
      "Ġà¤Ĳ": 1513,
      "à®¤à®ķ": 1514,
      "à°µà°¤": 1515,
      "Ġà¤Ĩà¤°": 1516,
      "Ġà¤ħà¤¤": 1517,
      "Ġà®ĩà®¤à®©": 1518,
      "à®ļà®©": 1519,
      "olog": 1520,
      "clud": 1521,
      "cc": 1522,
      "ton": 1523,
      "à®ķà®ķ": 1524,
      "à°¯à°®": 1525,
      "ook": 1526,
      "Ġà®µà®¨": 1527,
      "ark": 1528,
      "Ġà²ķà²°": 1529,
      "Ġà¦Ĩà¦¬": 1530,
      "à®Ĩà®®": 1531,
      "Ġà¦ħà¦§": 1532,
      "à¦¿à¥¤": 1533,
      "à°°à°¸": 1534,
      "à¦¯à¦ķ": 1535,
      "Ġtwo": 1536,
      "Ġafter": 1537,
      "Ġà®İà®´": 1538,
      "Ġits": 1539,
      "ool": 1540,
      "Ġen": 1541,
      "à²²à²¦": 1542,
      "Ġà¦¸à¦°": 1543,
      "à²¬à²¹": 1544,
      "\".": 1545,
      "à¤¤à¤¨": 1546,
      "à°ķà°¡": 1547,
      "Ġà®®à®°": 1548,
      "ions": 1549,
      "à§¦à§¦": 1550,
      "à¤ĩà¤Ł": 1551,
      "à²°à²¡": 1552,
      "Ġag": 1553,
      "ĠNew": 1554,
      "ugh": 1555,
      "ĠAs": 1556,
      "Ġà³§à³": 1557,
      "Ġà®ıà®±": 1558,
      "ile": 1559,
      "wn": 1560,
      "Ġà¤Ĺà¤ı": 1561,
      "Ġà¦Ĩà¦Ĺ": 1562,
      ")à¥¤": 1563,
      "Ġà¤ªà¤¦": 1564,
      "Ġà®µà®Ł": 1565,
      "Ġà²ħà²¥à²µ": 1566,
      "à°łà°¶": 1567,
      "Ġ{": 1568,
      "Ġà®ħà®´": 1569,
      "Ġbut": 1570,
      "ount": 1571,
      "ft": 1572,
      "Ġà¤¦à¤°": 1573,
      "old": 1574,
      "Ġà®µà®´à®Ļ": 1575,
      "ram": 1576,
      "à¦°à¦¹à¦£": 1577,
      "à°¯à°°": 1578,
      "Ġà°ħà°ķ": 1579,
      "Ġra": 1580,
      "Ġà¦¸à¦¹": 1581,
      "à¦ĩà¦²": 1582,
      "à¦ļà¦²": 1583,
      "eb": 1584,
      "ound": 1585,
      "ev": 1586,
      "à¦ĩà¦Ł": 1587,
      "uring": 1588,
      "à°²à°¤": 1589,
      "à¦¬à¦²": 1590,
      "200": 1591,
      "ace": 1592,
      "à®®à®²": 1593,
      "Ġà°ħà°¤à°¨": 1594,
      "à¤¤à¤®": 1595,
      "à¦¸à¦¬": 1596,
      "ason": 1597,
      "Ġper": 1598,
      "à¦Ľà¦°": 1599,
      "à²¯à²°": 1600,
      "Ġà®ĩà®ķ": 1601,
      "ited": 1602,
      "pt": 1603,
      "Ġyear": 1604,
      "Ġà®¯": 1605,
      "Ġplay": 1606,
      "11": 1607,
      "à°ķà°²": 1608,
      "ents": 1609,
      "Ġ[": 1610,
      "Ġà¦¬à¦Ľà¦°": 1611,
      "\",": 1612,
      "Ġà¤Ĭ": 1613,
      "Ġà°¤à°¨": 1614,
      "Ġà§¨à§¦à§¦à§": 1615,
      "Ġà®īà®£": 1616,
      "Ġà²°à²·": 1617,
      "Ġà°ħà°µ": 1618,
      "à®µà®²": 1619,
      "à¤¦à¤¨": 1620,
      "aw": 1621,
      "Ġ:": 1622,
      "à¦°à¦¯": 1623,
      "à¤¤à¤ķ": 1624,
      "Ġà®ĩà®£": 1625,
      "Ġà²¸à²°": 1626,
      "Ġà²¨à²¡": 1627,
      "à¤²à¤µ": 1628,
      "18": 1629,
      "Ġà¦®à¦¤": 1630,
      "ces": 1631,
      "Ġà®Ĩà®°": 1632,
      "Ġ13": 1633,
      "Ġà°ķà°¨": 1634,
      "Ġà¦®à¦¹": 1635,
      "ĠSc": 1636,
      "à¦ļà¦¨": 1637,
      "Ġà¦īà§İ": 1638,
      "Ġad": 1639,
      "Ġà¤ħà¤ª": 1640,
      "Ġà®Ĩà®Ł": 1641,
      "Ġà²ħà²ª": 1642,
      "à§¯": 1643,
      "à¦¿,": 1644,
      "à¤Łà¤²": 1645,
      "ors": 1646,
      "ey": 1647,
      "Ġapp": 1648,
      "Ġoff": 1649,
      "Ġinclud": 1650,
      "à®Łà®®à®©": 1651,
      "¯à³": 1652,
      "Ġim": 1653,
      "Ġà¦ªà¦¦": 1654,
      "Ġà®ļà®°": 1655,
      "ived": 1656,
      "eg": 1657,
      "Ġà²ħà²µ": 1658,
      "Ġbec": 1659,
      "à°°à°µ": 1660,
      "à²°à²¸": 1661,
      "inal": 1662,
      "Ġà®®à®²": 1663,
      "Ġà¤ħà¤µ": 1664,
      "Ġà²ħà²¦": 1665,
      "Ġà²īà²ª": 1666,
      "iss": 1667,
      "à²¡à²²": 1668,
      "uch": 1669,
      "}}": 1670,
      "Ġà®®à®¤": 1671,
      "Ġ193": 1672,
      "Ġà®īà®Ł": 1673,
      "Ġà°īà°¤": 1674,
      "ĠUniversity": 1675,
      "15": 1676,
      "à°Łà°²": 1677,
      "are": 1678,
      "Ġà²®à²¹": 1679,
      "à¦¨à¦¸": 1680,
      "à¤¸à¤²": 1681,
      "à¤¶à¤ķ": 1682,
      "Ġà²¤à²¨": 1683,
      "io": 1684,
      "à®ķà®Ł": 1685,
      "à¤ªà¤ķ": 1686,
      "Ġà®ĩà®¯à®ķ": 1687,
      "à¤§à¤¨": 1688,
      "à¦Ĺà¦¤": 1689,
      "urn": 1690,
      "à°¹à°¦": 1691,
      "à°¬à°°": 1692,
      "Ġà¥¤": 1693,
      "Ġloc": 1694,
      "à¦Łà¦¨": 1695,
      "Ġman": 1696,
      "Ġshe": 1697,
      "Ġcomm": 1698,
      "Ġà®ħà®ķ": 1699,
      "Ġà¦īà¦¤": 1700,
      "der": 1701,
      "à¤Ŀ": 1702,
      "à®´à®ķ": 1703,
      "ould": 1704,
      "Ġà°Ĩà°«": 1705,
      "à®®à®¤": 1706,
      "Ġà®ħà®µ": 1707,
      "ican": 1708,
      "Ġà¦§à¦°": 1709,
      "12": 1710,
      "à¦¨à¦¤": 1711,
      "à²¤à²¨": 1712,
      "Ġà°Ĩà°²à°¯": 1713,
      "à°«à°°": 1714,
      "à®°à®°": 1715,
      "Ġbeen": 1716,
      "ob": 1717,
      "13": 1718,
      "à°¯à°²": 1719,
      "à¦¦à¦¨": 1720,
      "ĠEn": 1721,
      "17": 1722,
      "hip": 1723,
      "oy": 1724,
      "à²²à²ķ": 1725,
      "Ġother": 1726,
      "à®¾,": 1727,
      "à¤ķà¤°à¤£": 1728,
      "Ġco": 1729,
      "Ġà¦Ĩà¦®": 1730,
      "Ġà²Ĩà²Ĺ": 1731,
      "à¦ķà¦²": 1732,
      "à°¡à°µ": 1733,
      "Ġà¤¸à¤¨": 1734,
      "Ġà¤®à¤§": 1735,
      "act": 1736,
      "Ġà°·": 1737,
      "Ġà°ĵ": 1738,
      "à¦¬à¦¬": 1739,
      "Ġà®ĩà®ļ": 1740,
      "ild": 1741,
      "à°ľà°¨": 1742,
      "à²¯à²¤": 1743,
      "Ġout": 1744,
      "Ġ25": 1745,
      "Ġà®¨à®ķà®°": 1746,
      "Ġà²ħà²²": 1747,
      "way": 1748,
      "à®±à®©à®°": 1749,
      "ĠSh": 1750,
      "à¦īà¦¸": 1751,
      "Ġà°ĸ": 1752,
      "Ġà¤ªà¤¶": 1753,
      "Ġà®¤à®°": 1754,
      "Ġà®¤à®©à®¤": 1755,
      "Ġà®ĩà®©": 1756,
      "Ġà°īà°ª": 1757,
      "ilm": 1758,
      "chool": 1759,
      "Ġà®ĩà®°à®£": 1760,
      "ied": 1761,
      "à®µà®ķ": 1762,
      "à¦¦à¦°": 1763,
      "ual": 1764,
      "à®¯à®Ļ": 1765,
      "Ġà¤®à¤¨": 1766,
      "Ġà°®à°¹": 1767,
      "Ġà¤Ĩà¤¦": 1768,
      "Ġà²°à²ķ": 1769,
      "Ġus": 1770,
      "able": 1771,
      "Ġà¤Ĩà¤¹": 1772,
      "ĠInd": 1773,
      "Ġrec": 1774,
      "Ġthis": 1775,
      "à¦¨à¦¯": 1776,
      "Ġà®Ĩà®µ": 1777,
      "oin": 1778,
      "vel": 1779,
      "Ġà®¸": 1780,
      "Ġà®Ī": 1781,
      "à®±à®ķ": 1782,
      "Ġà§©": 1783,
      "ĠPro": 1784,
      "Ġà®İà®¤": 1785,
      "Ġ2019": 1786,
      "à¤ĩà¤¨": 1787,
      "ted": 1788,
      "ath": 1789,
      "Ġà¤¦à¤ķ": 1790,
      "Ġà²ħà²¤": 1791,
      "ail": 1792,
      "son": 1793,
      "à°¿:": 1794,
      "à¥°": 1795,
      "Ġà°¸à°¹": 1796,
      "à²ªà²¡": 1797,
      "Ġà²ı": 1798,
      "à¦®à¦ķ": 1799,
      "outh": 1800,
      "Ġ2016": 1801,
      "à°¥à°®": 1802,
      "tt": 1803,
      "Ġà²¸à²¹": 1804,
      "ased": 1805,
      "Ġdes": 1806,
      "Ġà¥§à¥¯à¥": 1807,
      "à¯į)": 1808,
      "à¤Ńà¤Ĺ": 1809,
      "Ġup": 1810,
      "Ġà¦¹à¦¨": 1811,
      "Ġà¦ĩà¦¤": 1812,
      "à¤ķà¤¸": 1813,
      "ance": 1814,
      "Ġà²İà²°à²¡": 1815,
      "Ġà¤ķà¤²": 1816,
      "à®®à®°": 1817,
      "Ġ2020": 1818,
      "Ġà°°à°¹à°¦": 1819,
      "les": 1820,
      "Ġà¤¹à¤°": 1821,
      "à°ļà°¬à°¡": 1822,
      "Ġà°¸à°°à°«à°°": 1823,
      "à²¨à²¦": 1824,
      "ely": 1825,
      "Ġ2006": 1826,
      "Ġall": 1827,
      "à°¤à°®": 1828,
      "à°ļà°¡": 1829,
      "Ġgro": 1830,
      "Ġà²īà²¦": 1831,
      "Ġà°İà°ķ": 1832,
      "à¦°à¦§": 1833,
      "à¤²à¤¬": 1834,
      "à¦²à¦¤": 1835,
      "Ġtime": 1836,
      "199": 1837,
      "ake": 1838,
      "Ġà¤Ĩà¤£": 1839,
      "Ġhave": 1840,
      "emb": 1841,
      "fer": 1842,
      "Ġà¤Ŀ": 1843,
      "à¦°à¦Ń": 1844,
      "Ġà®ĩà®µ": 1845,
      "ex": 1846,
      "Ġ&": 1847,
      "à¥¨": 1848,
      "pr": 1849,
      "à°İ": 1850,
      "à®ªà®ķ": 1851,
      "à®£à®ª": 1852,
      "Ġserv": 1853,
      "Ġatt": 1854,
      "à°°à°¹": 1855,
      "à¦¤à¦ķ": 1856,
      "à¦¼à§Ģ": 1857,
      "à±ĭà°Ĥ": 1858,
      "Ġà®Ĩà®¯": 1859,
      "Ġà§¨à§¦à§¨": 1860,
      "Ġ/": 1861,
      "à²ķà²µ": 1862,
      "ans": 1863,
      "à²§à²®à²¨": 1864,
      "Ġev": 1865,
      "à°¯à°¤": 1866,
      "olle": 1867,
      "Ġà®ªà®±": 1868,
      "Ġà¦Ĩà¦¸": 1869,
      "Ġ2010": 1870,
      "Ġà³¨": 1871,
      "ood": 1872,
      "Ġà¤ľà¤¹": 1873,
      "Ġà¦ıà¦²": 1874,
      "Ġà¤¨à¤¦": 1875,
      "âĢĿ": 1876,
      "ished": 1877,
      "Ġà¦ħà¦¤": 1878,
      "ĠShe": 1879,
      "ĠCon": 1880,
      "Ġà¤īà¤ªà¤¯": 1881,
      "à¦Ŀ": 1882,
      "Ġà²§": 1883,
      "à²°à²¨": 1884,
      "à¤®à¤²": 1885,
      "Ġà¤Ĩà¤¤": 1886,
      "Ġele": 1887,
      "ĠâĢľ": 1888,
      "ai": 1889,
      "Ġind": 1890,
      "Ġinto": 1891,
      "à²ªà²°": 1892,
      "Ġà¦ĩà¦īà¦¨": 1893,
      "à°ĺ": 1894,
      "à¦¨à¦ķ": 1895,
      "à°ķà°¨": 1896,
      "one": 1897,
      "à²³à²Ĺ": 1898,
      "Ġà²ªà²¡": 1899,
      "stit": 1900,
      "_{": 1901,
      "gh": 1902,
      "à¥Ģ-": 1903,
      "à®©à®®": 1904,
      "à®¯à®ķ": 1905,
      "à°¦à°²": 1906,
      "Ġà®®à®£": 1907,
      "à¦ªà¦ķ": 1908,
      "Ġ2009": 1909,
      "Ġà¤ĳà¤«": 1910,
      "14": 1911,
      "à¤Ĺà¤²": 1912,
      "Ġover": 1913,
      "à¦¶à¦ķ": 1914,
      "ĠArch": 1915,
      "à®°à®Ļ": 1916,
      "à®¯à®±": 1917,
      "Ġà®µà®³à®°": 1918,
      "Ġà°®à°°": 1919,
      "Ġà¦Ĩà¦ĩ": 1920,
      "ĠAmer": 1921,
      "ublic": 1922,
      "orld": 1923,
      "ral": 1924,
      "Ġund": 1925,
      "Ġà¦¬à¦¨": 1926,
      "à²ªà²¨": 1927,
      "Ġà¤Ĳà¤¸": 1928,
      "oh": 1929,
      "Ġà²ĸ": 1930,
      "eral": 1931,
      "à®ļà®¤": 1932,
      "Ġà®ħà®³à®µ": 1933,
      "rans": 1934,
      "ks": 1935,
      "à¤°à¤¶": 1936,
      "à¦®à¦²": 1937,
      "à°®à°¨": 1938,
      "à°ªà°²": 1939,
      "oth": 1940,
      "Ġà¤°à¤¹à¤¤": 1941,
      "à²İ": 1942,
      "à¤¨à¤¤": 1943,
      "à¦®à¦¤": 1944,
      "Ġà¦Ĩà¦ķ": 1945,
      "Ġ2015": 1946,
      "Ġà®ħà®¤à®©": 1947,
      "Ġpol": 1948,
      "Ġ30": 1949,
      "Ġkn": 1950,
      "Â°": 1951,
      "à¯į:": 1952,
      "à®²à®ª": 1953,
      "Ġ2008": 1954,
      "ĠâĢĺ": 1955,
      "ah": 1956,
      "à¤°à¤¨": 1957,
      "à¦°à¦Ĺ": 1958,
      "Ġà¤¶à¤¬": 1959,
      "à§§à§¯à§": 1960,
      "Ġà®ĩà®ª": 1961,
      "Ġseason": 1962,
      "à¯Ī.": 1963,
      "Ġà®ķà®¤": 1964,
      "Ġà¤Ĩà¤µ": 1965,
      "ĠDe": 1966,
      "Ġà§§à§®": 1967,
      "Ġnew": 1968,
      "rad": 1969,
      "ĠZ": 1970,
      "à²¯à²®": 1971,
      "Ġà¤¬à¤ļ": 1972,
      "Ġà°®à°§": 1973,
      "Ġà°ħà°®": 1974,
      "Ġà®İà®Ł": 1975,
      "play": 1976,
      "à°°à°§": 1977,
      "à°¨à°µ": 1978,
      "à²¦à²µ": 1979,
      "Ġà®ĩà®Ł": 1980,
      "Ġà¤¨à¤Ĺà¤°": 1981,
      "Ġà¦ħà¦ķ": 1982,
      "ings": 1983,
      "Ġà®Ĩà®©": 1984,
      "yle": 1985,
      "à²Ĺà²¦": 1986,
      "Ġ2007": 1987,
      "16": 1988,
      "à¥Ģ)": 1989,
      "Ġà¤¤à¤°à¤¹": 1990,
      "rough": 1991,
      "hes": 1992,
      "à¦¦à¦¸": 1993,
      "Ġà¦ħà¦¸": 1994,
      "Ġdis": 1995,
      "Ġhim": 1996,
      "Ġreg": 1997,
      "^{": 1998,
      "à¦¨à¦°": 1999,
      "ann": 2000,
      "à²·à²£": 2001,
      "cted": 2002,
      "Ġà®ħà®¨": 2003,
      "Ġà¤¬à¤¢": 2004,
      "Ġtra": 2005,
      "Ġà¦ķà¦²": 2006,
      "Ġà°µà°ļ": 2007,
      "Ġ192": 2008,
      "Ġà¦īà¦²": 2009,
      "Ġà²ħà²Ń": 2010,
      "à²¶à²Ĺà²³": 2011,
      "Ġà¤²à¤Ĺà¤Ńà¤Ĺ": 2012,
      "aj": 2013,
      "orth": 2014,
      "Ġfl": 2015,
      "Ġà°ħà°²": 2016,
      "Ġ2012": 2017,
      "earch": 2018,
      "Ġà¤ħà¤¬": 2019,
      "Ġà¤Ĩà¤Ī": 2020,
      "Ġà¦Ĩà¦¯": 2021,
      "Ġà²ĩà²µ": 2022,
      "ose": 2023,
      "à®°à®ļ": 2024,
      "à¥Ģ.": 2025,
      "Ġà¦¸à¦°à¦ķ": 2026,
      "ict": 2027,
      "ash": 2028,
      "Ġà²ħà²§": 2029,
      "Ġà¦¦à¦ķ": 2030,
      "SB": 2031,
      "à²¤à²¹": 2032,
      "Ġà®ªà®¯": 2033,
      "att": 2034,
      "Ġà¤¶à¤°": 2035,
      "Ġwhere": 2036,
      "à²¤à²®": 2037,
      "Ġà¦¸à¦¬": 2038,
      "Ġthey": 2039,
      "à²¡à²µ": 2040,
      "Ġà²¬à²°": 2041,
      "form": 2042,
      "à°°à°¦": 2043,
      "à¤µà¤µ": 2044,
      "à°¸à°¨": 2045,
      "Ġsup": 2046,
      "Ġà°Ĩà°¯à°¨": 2047,
      "Ġ2018": 2048,
      "Ġà²İà²²": 2049,
      "Ġà°ªà°Ł": 2050,
      "ick": 2051,
      "à²ªà²Ł": 2052,
      "Ġthree": 2053,
      "du": 2054,
      "ward": 2055,
      "Ġà¤ªà¤¡": 2056,
      "Ġà¦ªà¦¡": 2057,
      "à®£à®¤": 2058,
      "ase": 2059,
      "Ġbet": 2060,
      "Ġà°Ĩà°¸": 2061,
      "ĠLe": 2062,
      "rib": 2063,
      "ĠComm": 2064,
      "Ġunder": 2065,
      "à¦°à¦¶": 2066,
      "à±į.": 2067,
      "Ġà¤ķà¤ª": 2068,
      "Ġà¤¤à¤°": 2069,
      "à¦¹à¦°": 2070,
      "Ġà²ĩà²²": 2071,
      "à¤¨à¤²": 2072,
      "à¦¨à¦Ł": 2073,
      "Ġinv": 2074,
      "Ġà¦¤à¦¬": 2075,
      "Ġ2014": 2076,
      "Ġà¤ĺà¤°": 2077,
      "Ġà³§à³¯à³": 2078,
      "ween": 2079,
      "à¤¿,": 2080,
      "hen": 2081,
      "à¤·à¤¤": 2082,
      "à¦ĩà¦ķ": 2083,
      "ĠSp": 2084,
      "à¤ıà¤¸": 2085,
      "ious": 2086,
      "à®±à®®": 2087,
      "à®±à®µ": 2088,
      "à²Łà²¨": 2089,
      "Ġpre": 2090,
      "Ġà¦īà¦ªà¦°": 2091,
      "ctor": 2092,
      "Ġà¦«à¦²": 2093,
      "Ġà¤®à¤¹à¤¤": 2094,
      "ject": 2095,
      "à³įâĢį": 2096,
      "à¤ľà¤°": 2097,
      "Ġà¤¬à¤²": 2098,
      "50": 2099,
      "à¯į-": 2100,
      "à®ªà®µà®°": 2101,
      "Ġà¤¸à¤¤": 2102,
      "Ġà§«": 2103,
      "ough": 2104,
      "Ġà²¬à²¹": 2105,
      "30": 2106,
      "à¤ķà¤¡": 2107,
      "anc": 2108,
      "Ġà¤¬à¤°": 2109,
      "als": 2110,
      "Ġfilm": 2111,
      "à¦·à¦¯": 2112,
      "ouse": 2113,
      "à°·à°£": 2114,
      "Ġ2021": 2115,
      "à²°à²Ĺà²³": 2116,
      "Ġà¤¸à¤ķ": 2117,
      "à¤Łà¤ķ": 2118,
      "Ġà®ĩà®Ļ": 2119,
      "Ġ22": 2120,
      "Ġà°ħà°Ń": 2121,
      "ily": 2122,
      "Ġà¤ļà¤²": 2123,
      "ident": 2124,
      "ock": 2125,
      "Ġà¤§à¤°": 2126,
      "Ġà®ħà®ª": 2127,
      "Ġà°ªà°¨": 2128,
      "Ġmore": 2129,
      "ĠMay": 2130,
      "oot": 2131,
      "Ġ)": 2132,
      "à²²à²¨": 2133,
      "Ġbu": 2134,
      "Ġà²ħà²°": 2135,
      "Ġà¦Ĺà¦¬": 2136,
      "à¥¦à¥¦": 2137,
      "overn": 2138,
      "yst": 2139,
      "à®İ": 2140,
      "à²ĺ": 2141,
      "Ġcent": 2142,
      "chn": 2143,
      "à¦¸à¦®": 2144,
      "Ġà¤ľà¤²": 2145,
      "à²®à²°": 2146,
      "à¦¹à¦¤": 2147,
      "ute": 2148,
      "Ġwhen": 2149,
      "air": 2150,
      "ps": 2151,
      "à®ķà®Ļ": 2152,
      "à²¦à²ķ": 2153,
      "à¦¯à¦¬à¦¸": 2154,
      "Ġà¤ł": 2155,
      "Ġà¤¸à¤¦": 2156,
      "à²Ĺà²¤": 2157,
      "à¤µà¤ª": 2158,
      "Ġà®®à®Ł": 2159,
      "Ġform": 2160,
      "78": 2161,
      "à²°à²°": 2162,
      "à®¯à®µ": 2163,
      "Ġà¤®à¤£": 2164,
      "à¦Łà¦°": 2165,
      "Ġà®ļà®¨": 2166,
      "ĠBer": 2167,
      "ĠUnited": 2168,
      "dis": 2169,
      "à®ħ": 2170,
      "à¤°à¤¬": 2171,
      "à®ªà®©": 2172,
      "ities": 2173,
      "Ġà°µà°°": 2174,
      "à¤ĸà¤¨": 2175,
      "com": 2176,
      "ix": 2177,
      "à¤°à¤ľ": 2178,
      "à°°à°ª": 2179,
      "à¤²à¤ķ": 2180,
      "à²µà²²": 2181,
      "Ġ24": 2182,
      "Ġà°µà°°à°ķ": 2183,
      "Ġà¤Ĩà¤ķ": 2184,
      "ĠNational": 2185,
      "à¤łà¤¨": 2186,
      "Ġà¤ĵà¤²": 2187,
      "Ġ{\\": 2188,
      "à¥«": 2189,
      "à¦¨à¦¬": 2190,
      "Ġ2013": 2191,
      "eop": 2192,
      "à®ªà®±": 2193,
      "à²¯à²Ĺà²³": 2194,
      "Ġà®¤à®¯": 2195,
      "Ġà¦ħà¦ŀ": 2196,
      "Ġà²ķà²²": 2197,
      "Ġà°ħà°§": 2198,
      "Ġret": 2199,
      "ier": 2200,
      "à¤¯à¤ª": 2201,
      "à¤¹à¤¨": 2202,
      "Ġà¤ħà¤Ĺ": 2203,
      "ating": 2204,
      "ese": 2205,
      "Ġà¦¹à¦ĵà¦¯": 2206,
      "Ġà¦ħà¦«": 2207,
      "Ġà²ķà²¡": 2208,
      "ĠPh": 2209,
      "Ġabout": 2210,
      "SBN": 2211,
      "ww": 2212,
      "Ã©": 2213,
      "à¤ķà¤¨": 2214,
      "à®³à®©à®°": 2215,
      "Ġfound": 2216,
      "à¤¥à¤®": 2217,
      "oment": 2218,
      "ology": 2219,
      "Ġà°ĺ": 2220,
      "Ġà¦¸à¦¦à¦¸": 2221,
      "à±Ģ,": 2222,
      "Ġà¤īà¤²": 2223,
      "Ġà²¤à²®": 2224,
      "Ġonly": 2225,
      "ĠFor": 2226,
      "à¦°à¦ļ": 2227,
      "à¤ĸà¤²": 2228,
      "ĠISBN": 2229,
      "Ġ2017": 2230,
      "Ġthrough": 2231,
      "Ġà¤ĩà¤¨à¤ķ": 2232,
      "ĠAmerican": 2233,
      "ystem": 2234,
      "à¤£à¤¨": 2235,
      "Ġpr": 2236,
      "Ġà¤¤à¤¹": 2237,
      "Ġorgan": 2238,
      "Ġbetween": 2239,
      "Ġâ": 2240,
      "à®ķà®©": 2241,
      "à®ķà®£": 2242,
      "Ġà®ķà®©": 2243,
      "ale": 2244,
      "rop": 2245,
      "ĠCent": 2246,
      "Ġass": 2247,
      "ific": 2248,
      "ys": 2249,
      "Ġà¦Ĳ": 2250,
      "à®¤à®µà®°": 2251,
      "Ġà®īà®¯à®°": 2252,
      "Ġà²ĩà²¦à²°": 2253,
      "oss": 2254,
      "Ġagain": 2255,
      "ren": 2256,
      "à¤Ĭ": 2257,
      "à¤¤à¤µ": 2258,
      "à®²à®Ļ": 2259,
      "Ġ23": 2260,
      "à®´à®¨": 2261,
      "Ġà§ª": 2262,
      "à²£à²µ": 2263,
      "Ġà¤ĵà¤°": 2264,
      "à¦ĥ": 2265,
      "à¦¿)": 2266,
      "à¤¨à¤µ": 2267,
      "à²°à²¦à²²": 2268,
      "ons": 2269,
      "Ġà¤īà¤ļ": 2270,
      "style": 2271,
      "Ġà²¤à²¯": 2272,
      "oci": 2273,
      "Ġart": 2274,
      "eople": 2275,
      "ever": 2276,
      "à²ħ": 2277,
      "à²Ĺà²µ": 2278,
      "Ġday": 2279,
      "Ġà¤ĩà¤¸à¤®": 2280,
      "Ġà²°à²²": 2281,
      "à®µà®¤à®±": 2282,
      "Ġcons": 2283,
      "ollow": 2284,
      "ĥà®ª": 2285,
      "ather": 2286,
      "à°ªà°Ł": 2287,
      "Ġà²Ĩà²¦à²°": 2288,
      "Ġà¦ĩà¦ī": 2289,
      "à²¥à²³": 2290,
      "Ġspec": 2291,
      "à®³à®Ļ": 2292,
      "à²µà²£": 2293,
      "Ġà°ªà°¦": 2294,
      "Ġà®Ĩà®±": 2295,
      "ĠTe": 2296,
      "Ġest": 2297,
      "à¥©": 2298,
      "à¤ķà¤Ł": 2299,
      "ina": 2300,
      "à¦Łà¦ķ": 2301,
      "ond": 2302,
      "à²¡à²¨": 2303,
      "Ġstud": 2304,
      "Ġà°İà°¨": 2305,
      "omentum": 2306,
      "ober": 2307,
      "à¤¯à¤¸": 2308,
      "Ġà¦¸à¦Ļ": 2309,
      "Ġà®¤à®Ł": 2310,
      "Ġà®ļà®Ļ": 2311,
      "ision": 2312,
      "à¤¥à¤²": 2313,
      "Ġà²ķà²¬": 2314,
      "Ġ190": 2315,
      "Ġà®İà®²": 2316,
      "Ġà°ĩà°¤à°°": 2317,
      "ox": 2318,
      "à²ł": 2319,
      "à¤¾.": 2320,
      "à®°à®£à®®": 2321,
      "Ġacc": 2322,
      "à°¦à°¨": 2323,
      "Ġà¤Ĺà¤¤": 2324,
      "à¤¥à¤µ": 2325,
      "Ġà°ħà°¤": 2326,
      "Ġmov": 2327,
      "Ġduring": 2328,
      "Ġà¦īà¦ļ": 2329,
      "Ġgo": 2330,
      "ept": 2331,
      "Ġent": 2332,
      "à¤¨à¤®": 2333,
      "à¤®à¤¸": 2334,
      "Ġact": 2335,
      "ĠCar": 2336,
      "Ġme": 2337,
      "Ġyears": 2338,
      "II": 2339,
      "Ġqu": 2340,
      "à¤¾-": 2341,
      "à¤¯à¤µà¤¸": 2342,
      "à®µà®ª": 2343,
      "ank": 2344,
      "icip": 2345,
      "Ġà§§": 2346,
      "Ġà°ħà°¯": 2347,
      "Ġmade": 2348,
      "ĠMomentum": 2349,
      "use": 2350,
      "Ġà®ĩà®¯à®¨": 2351,
      "Ġà³¨à³¦": 2352,
      "duc": 2353,
      "Ġed": 2354,
      "à¥ª": 2355,
      "à¥¬": 2356,
      "à®®à®®": 2357,
      "à¦ķà¦°à¦£": 2358,
      "Ġà¦ªà¦¶": 2359,
      "eld": 2360,
      "iver": 2361,
      "à¤°à¤¦à¤°": 2362,
      "Ġ2022": 2363,
      "led": 2364,
      "red": 2365,
      "à²Ĺà²²": 2366,
      "any": 2367,
      "Ġà®ħà®ļ": 2368,
      "Ġà²ħà²µà²¨": 2369,
      "Ġà¦ļà¦°": 2370,
      "pen": 2371,
      "Ġ=": 2372,
      "à¦ħ": 2373,
      "à®ªà®®": 2374,
      "ative": 2375,
      "ars": 2376,
      "Ġrel": 2377,
      "Ġà¦ĩà¦¸à¦²": 2378,
      "Ġà§§à§¯à§Ń": 2379,
      "cond": 2380,
      "Ø§": 2381,
      "à±į-": 2382,
      "à²¨à²µ": 2383,
      "Ġà¤¬à¤¸": 2384,
      "à²Łà²ķ": 2385,
      "Ġà¦°à¦ķ": 2386,
      "à°ľà°°": 2387,
      "Ġà§§à§«": 2388,
      "raph": 2389,
      "....": 2390,
      "Ġà¥¨à¥¦à¥": 2391,
      "ternational": 2392,
      "40": 2393,
      "iew": 2394,
      "ss": 2395,
      "à¤¨à¤¸": 2396,
      "ins": 2397,
      "Ġà®ħà®Ļ": 2398,
      "ica": 2399,
      "Ġà°ħà°°": 2400,
      "ists": 2401,
      "ced": 2402,
      "Ġend": 2403,
      "ince": 2404,
      "à°Ĺà°²": 2405,
      "à°Ĺà°£": 2406,
      "Ġear": 2407,
      "ĠJan": 2408,
      "à¦ıà¦¸": 2409,
      "ĠEng": 2410,
      "display": 2411,
      "cy": 2412,
      "ee": 2413,
      "à´": 2414,
      "Ġà®ªà®´": 2415,
      "Ġà®¤à®±": 2416,
      "Ġà²Ĩà²¸": 2417,
      "Ġà§§à§¯à§®": 2418,
      "Ġà²īà²ªà²¯": 2419,
      "displaystyle": 2420,
      "):": 2421,
      "by": 2422,
      "à®ªà®¨": 2423,
      "à²¯à²¦à²²": 2424,
      "Ġwould": 2425,
      "Ġà¦¹à¦¬": 2426,
      "à°·à°¤": 2427,
      "une": 2428,
      "ĠItal": 2429,
      "à®¤à®©à®°": 2430,
      "Ġà®ªà®³": 2431,
      "à°¦à°Ł": 2432,
      "Ġà¦ķà¦¯": 2433,
      "à¤¦à¤²": 2434,
      "à¤Ĺà¤¢": 2435,
      "Ġà§¬": 2436,
      "Ġà¤Ĩà¤¸": 2437,
      "Ġrem": 2438,
      "other": 2439,
      "uss": 2440,
      "overnment": 2441,
      "iam": 2442,
      "à¦°à¦ª": 2443,
      "à²²à²¸": 2444,
      "Ġà®ªà®Ļ": 2445,
      "ism": 2446,
      "Ġ21": 2447,
      "ional": 2448,
      "Ġà°¬à°¹": 2449,
      "ement": 2450,
      "Ġsecond": 2451,
      "ohn": 2452,
      "Ġknown": 2453,
      "ten": 2454,
      "Ġac": 2455,
      "à°µà°¨": 2456,
      "ator": 2457,
      "à¦¶à¦Ĺ": 2458,
      "Ġà®īà®¤à®µ": 2459,
      "ĠWorld": 2460,
      "ĠÐ": 2461,
      "à¥®": 2462,
      "Ġà°Ĳ": 2463,
      "à¤¨à¤¨": 2464,
      "à²°à²¹": 2465,
      "à¤®à¤¦": 2466,
      "à¦®à¦Ĺ": 2467,
      "Ġà®īà®²": 2468,
      "ĠFran": 2469,
      "ĠThis": 2470,
      "sp": 2471,
      "uary": 2472,
      "ĠQ": 2473,
      "à®°à®²": 2474,
      "à¦ķà¦Ń": 2475,
      "à¦¬à¦ª": 2476,
      "Ġà¤®à¤¦": 2477,
      "Ġà®µà®²": 2478,
      "its": 2479,
      "ĠAt": 2480,
      "eter": 2481,
      "Ġnum": 2482,
      "Ġam": 2483,
      "à¦®à¦°": 2484,
      "enn": 2485,
      "Ġà²¬à²²": 2486,
      "Ġà°ĩà°ķ": 2487,
      "Ġ2005": 2488,
      "Ġà²ħà²ªà²§à²®à²¨": 2489,
      "à²°à²µà²¨": 2490,
      "à¦¬à¦¤": 2491,
      "à²¯à²µà²¨": 2492,
      "eneral": 2493,
      "Ġ26": 2494,
      "Ġ28": 2495,
      "Ġà®Ĩà®ļ": 2496,
      "ĠSouth": 2497,
      "Ġdr": 2498,
      "Ġà²ĩà²¨": 2499,
      "Ġà¦ĩà¦¯": 2500,
      "ĠGr": 2501,
      "Ġà§§à§¯à§©": 2502,
      "quad": 2503,
      "à®µà®©à®®": 2504,
      "à°²à°µ": 2505,
      "à²µà²¤": 2506,
      "à¦ĩà¦°": 2507,
      "à¦ĩà¦¸": 2508,
      "Ġà°ħà°¦": 2509,
      "Ġà¤ĩà¤¤": 2510,
      "ĠRep": 2511,
      "Ġteam": 2512,
      "à¥Ń": 2513,
      "à¤°à¤²": 2514,
      "à°¨à°ª": 2515,
      "à¦¬à¦ķ": 2516,
      "à¤ªà¤¸": 2517,
      "Ġthem": 2518,
      "Ġfe": 2519,
      "ĠCl": 2520,
      "Ġà²ĩà²°": 2521,
      "à¤ĩà¤¡": 2522,
      "Ġ2004": 2523,
      "ull": 2524,
      "ĠStates": 2525,
      "ty": 2526,
      "à¦²à¦¸": 2527,
      "inn": 2528,
      "à®ķà®³à®µ": 2529,
      "à¤Łà¤®": 2530,
      "à¤¬à¤²": 2531,
      "Ġpres": 2532,
      "embers": 2533,
      "arg": 2534,
      "à¥ĭà¤Ĥ,": 2535,
      "à¤ļà¤²": 2536,
      "Ġà²ħà²¦à²°": 2537,
      "round": 2538,
      "ĠAd": 2539,
      "à²¶à²¦": 2540,
      "ĠGe": 2541,
      "Ġ50": 2542,
      "Ġà¤ķà¤¹à¤¤": 2543,
      "60": 2544,
      "Ġ$": 2545,
      "à®ªà®²": 2546,
      "à¦²à¦¬": 2547,
      "Ġthen": 2548,
      "Ġthere": 2549,
      "Ġà®¤à®Ļ": 2550,
      "Ġfam": 2551,
      "Ġdire": 2552,
      "ilit": 2553,
      "Ġà¦īà¦¨": 2554,
      "à¥ĥà¤Ĥ": 2555,
      "ĠMarch": 2556,
      "à¥§à¥": 2557,
      "à°°à°²": 2558,
      "Ġtrans": 2559,
      "Ġà¤ıà¤²": 2560,
      "ĠAfter": 2561,
      "à²¶à²ķ": 2562,
      "Ġlater": 2563,
      "à®ªà®°à®Ļ": 2564,
      "ized": 2565,
      "ĠArchived": 2566,
      "ield": 2567,
      "Ġà°§": 2568,
      "Ġsub": 2569,
      "Ġschool": 2570,
      "à²¬à²²": 2571,
      "ĠBl": 2572,
      "uth": 2573,
      "ĠFl": 2574,
      "ck": 2575,
      "fore": 2576,
      "mber": 2577,
      "Ġà®ļà®ķ": 2578,
      "Ġcan": 2579,
      "Ġà¤Ĩà¤¨": 2580,
      "Ġmost": 2581,
      "à°ľà°ķ": 2582,
      "à°ľà°¯": 2583,
      "amb": 2584,
      "Ġbeing": 2585,
      "ĠJohn": 2586,
      "à®ŀà®°": 2587,
      "à®¹": 2588,
      "Ġà®ķà®±": 2589,
      "Ġà¤¨à¤µ": 2590,
      "à¦Ĺà¦°": 2591,
      "Ġà²Ĩà²ķ": 2592,
      "ĠUS": 2593,
      "ugust": 2594,
      "Ġà°Ĵà°ķà°Ł": 2595,
      "my": 2596,
      "à®ķà®ļ": 2597,
      "à²¨à²°": 2598,
      "ise": 2599,
      "ital": 2600,
      "Ġinter": 2601,
      "à¤ļà¤°": 2602,
      "à¦ĩà¦¯": 2603,
      "Ġ2000": 2604,
      "Ġà¤¶à¤¤": 2605,
      "Ġà§§à§¦": 2606,
      "à°¨à°²": 2607,
      "ered": 2608,
      "Ġà¦¸à¦¨": 2609,
      "Ġà¤Ĺà¤°": 2610,
      "Ġà°¨à°ķ": 2611,
      "à²Ńà²µ": 2612,
      "Ġà§§à§¯à§¬": 2613,
      "Ġdec": 2614,
      "Ġprov": 2615,
      "eptember": 2616,
      "ience": 2617,
      "à®²à®µ": 2618,
      "à¦®à¦¬": 2619,
      "Ġà®ĩà®±": 2620,
      "Ġà¦¬à¦¡": 2621,
      "Ġso": 2622,
      "Ġser": 2623,
      "Ġà²Ĩà²²": 2624,
      "Ġlead": 2625,
      "Ġbecame": 2626,
      "ient": 2627,
      "Ġà²ĺ": 2628,
      "à¦¨à¦¨": 2629,
      "à®¨à®°": 2630,
      "Ġsing": 2631,
      "à¤¡à¤°": 2632,
      "Ġà¤Ĩà¤ľ": 2633,
      "Ġà¦Ĩà¦¦": 2634,
      "Ġà²¨à²²": 2635,
      "Ġà¦¶à¦¤": 2636,
      "Ġà²Ĩà²¦": 2637,
      "ury": 2638,
      "...": 2639,
      "Ġà®ªà®°à®£": 2640,
      "25": 2641,
      "The": 2642,
      "cess": 2643,
      "Ġà®ĩà®®": 2644,
      "Ġ27": 2645,
      "Ġfollow": 2646,
      "Ġà¤¤à¤¬": 2647,
      "Ġmembers": 2648,
      "Ġdo": 2649,
      "Ġà®İà®£": 2650,
      "Ġà¦ªà¦°à¦¬à¦°": 2651,
      "opul": 2652,
      "à®ķà®µà®²": 2653,
      "Ġà¦ıà¦¸": 2654,
      "à¤·à¤ķ": 2655,
      "Ġà®¨à®Łà®¤": 2656,
      "Ġà¤²à¤¡": 2657,
      "cember": 2658,
      "Ġdevel": 2659,
      "ife": 2660,
      "Ġdevelop": 2661,
      "gy": 2662,
      "à®¯à®µà®±": 2663,
      "à¦¸à¦°": 2664,
      "ired": 2665,
      "à¤ĩà¤ķ": 2666,
      "Ġincluding": 2667,
      "//": 2668,
      "Ġà¤ķà¤¨": 2669,
      "à¤¸à¤¸": 2670,
      "à²Ĺà²¡": 2671,
      "Ġà®¤à®£": 2672,
      "à±ĩ,": 2673,
      "Ġcall": 2674,
      "à³ĩà²Ĥ": 2675,
      "à¦ĩà¦¡": 2676,
      "à¦·à¦ķ": 2677,
      "ĠSeptember": 2678,
      "à²ªà²¤": 2679,
      "ĠAugust": 2680,
      "à¥¦à¥¦à¥": 2681,
      "à®¤à®µà®´": 2682,
      "à®ĩà®²": 2683,
      "Ġà¤Ĭà¤ªà¤°": 2684,
      "à§¯à§": 2685,
      "à°Łà°ķ": 2686,
      "ane": 2687,
      "Ġpeople": 2688,
      "Ġà¤Ĩà¤®": 2689,
      "Ġthan": 2690,
      "Ġagainst": 2691,
      "://": 2692,
      "lish": 2693,
      "à®ķà®°à®®": 2694,
      "Ġà¤ķà¤µ": 2695,
      "à®µà®©à®¤": 2696,
      "à¤®à¤Ĺ": 2697,
      "à²Łà²¦": 2698,
      "Ġcre": 2699,
      "Ġà°°à°ļ": 2700,
      "198": 2701,
      "ĠDecember": 2702,
      "à²Ĩ": 2703,
      "à¥§": 2704,
      "à¥įâĢį": 2705,
      "Ġà¤¹à¤µ": 2706,
      "à°ªà°°": 2707,
      "Ġà°µà°¸": 2708,
      "ices": 2709,
      "à¦ĩà¦¬": 2710,
      "Ġà²ķà²Ł": 2711,
      "à¤¼à¥į": 2712,
      "Ġtown": 2713,
      "ley": 2714,
      "ural": 2715,
      "Ġà§§à§¯à§«": 2716,
      "Ġdef": 2717,
      "ĠJanuary": 2718,
      "bum": 2719,
      "ball": 2720,
      "à¤°à¤¥à¤®": 2721,
      "à¦°à¦²": 2722,
      "à³į)": 2723,
      "à²¤à²ķ": 2724,
      "erman": 2725,
      "igned": 2726,
      "Ġà²¬à²³à²¸": 2727,
      "aff": 2728,
      "uk": 2729,
      "à¤¾)": 2730,
      "à¤°à¤ª": 2731,
      "à®ªà®°à®®": 2732,
      "à¤Ĺà¤µ": 2733,
      "ĠLab": 2734,
      "ĠNov": 2735,
      "Ġà°īà°ªà°¯": 2736,
      "90": 2737,
      "Ġ|": 2738,
      "à¦¬à¦¸": 2739,
      "à²Ĺà²Ĺà²³": 2740,
      "à²¡à²°": 2741,
      "Ġà°¨à°Ł": 2742,
      "Ġà°Ĺà°£": 2743,
      "Ġann": 2744,
      "Ġplayed": 2745,
      "Ġsupport": 2746,
      "à¦¿-": 2747,
      "à®°à®Ł": 2748,
      "à¦ķà¦¤": 2749,
      "à¤®à¤°": 2750,
      "Ġà®ĩà®Łà®®": 2751,
      "Ġà®µà®£": 2752,
      "à§Ģ,": 2753,
      "Ġà¤īà¤ªà¤¨": 2754,
      "Ġà¤Ĩà¤²": 2755,
      "Ġà¤ĩà¤²": 2756,
      "Ġdist": 2757,
      "Ġ2003": 2758,
      "Ġà§§à§¯à§¯à§": 2759,
      "à®ķà®´à®ķà®¤": 2760,
      "Ġgroup": 2761,
      "tain": 2762,
      "à²ŀ": 2763,
      "à®°à®£": 2764,
      "à¤ľà¤¯": 2765,
      "à²¡à²¦": 2766,
      "Ġpar": 2767,
      "Ġmon": 2768,
      "Ġà¦¯à¦¦": 2769,
      "ets": 2770,
      "ower": 2771,
      "ĠJu": 2772,
      "Ġà°ĵà°¡": 2773,
      "ration": 2774,
      "à¤µà¤ļ": 2775,
      "Ġfour": 2776,
      "Ġmat": 2777,
      "à²£à²ķ": 2778,
      "Ġà²¬à²Ĺ": 2779,
      "ĠPol": 2780,
      "Ġà¦¶à¦¹à¦°": 2781,
      "Ġà²Ĺà²³": 2782,
      "Ġ2001": 2783,
      "ĠOr": 2784,
      "Ġclub": 2785,
      "ĠAng": 2786,
      "Ġappear": 2787,
      "ollege": 2788,
      "à¤¯à¤¦": 2789,
      "hem": 2790,
      "Ġà®ķà®ļ": 2791,
      "à²ķà²Ł": 2792,
      "Ġà®¤à®ķà®µà®²": 2793,
      "Ġà¤¬à¤¤": 2794,
      "Ġsome": 2795,
      "Ġsuch": 2796,
      "Ġà°ħà°¸": 2797,
      "ĠCal": 2798,
      "à¦¥à¦¨": 2799,
      "Ġà°¬à°¸": 2800,
      "Ġreport": 2801,
      "Ġà¤¸à¤®à¤Ŀ": 2802,
      "istory": 2803,
      "Ġwhile": 2804,
      "Ġà²ĩà²¦à²¨": 2805,
      "Ġà¤ħà¤²à¤Ĺ": 2806,
      "24": 2807,
      "ll": 2808,
      "à®®à®ķ": 2809,
      "à¦¯à¦¯": 2810,
      "à¦®à¦¦": 2811,
      "à¦¸à¦ķ": 2812,
      "à®ļà®²": 2813,
      "à²¸à²¦": 2814,
      "Ġfight": 2815,
      "Ġfinal": 2816,
      "à¤¬à¤¨": 2817,
      "ĠRes": 2818,
      "ution": 2819,
      "Ġà¤īà¤¸à¤¨": 2820,
      "Ġresearch": 2821,
      "08": 2822,
      "gram": 2823,
      "ĠX": 2824,
      "à¤¯à¤µ": 2825,
      "à¤¯à¤¯à¤¨": 2826,
      "à°²à°®": 2827,
      "à²µà²¦": 2828,
      "à°Łà°¡": 2829,
      "Ġà²ªà²¦": 2830,
      "à¦§à¦¤": 2831,
      "ĠAf": 2832,
      "ames": 2833,
      "Ġà¥§": 2834,
      "Ġà®ķà®£à®ķ": 2835,
      "Ġleft": 2836,
      "23": 2837,
      "à¤¯à¤²": 2838,
      "Ġà¦ıà¦®à¦¨": 2839,
      "à²³à²µ": 2840,
      "ature": 2841,
      "Ġwell": 2842,
      "Ġà¦®à¦¸": 2843,
      "Ġà²®à²°": 2844,
      "Ġinc": 2845,
      "Ġà¤Ĩà¤ª": 2846,
      "Ġà¤Ĩà¤Ĺ": 2847,
      "Ġà¤¯à¤¦": 2848,
      "ĠPr": 2849,
      "à²ļà²¨": 2850,
      "à¤«à¤²": 2851,
      "Ġrep": 2852,
      "imes": 2853,
      "Ġnational": 2854,
      "Ġdep": 2855,
      "Ġà®ĩà®¯à®±": 2856,
      "Ġà¤¤à¤¹à¤¸": 2857,
      "Ð¾": 2858,
      "à¯ģ:": 2859,
      "Ġà®ªà®©": 2860,
      "ara": 2861,
      "Ġwrit": 2862,
      "à°ªà°¡": 2863,
      "Ġcamp": 2864,
      "Ġà®¨à®®": 2865,
      "Ġà²ħà²¸": 2866,
      "Ġà¦Ĺà¦ł": 2867,
      "ĠWar": 2868,
      "Ġ2002": 2869,
      "Ġheld": 2870,
      "Ġà®ĵà®°": 2871,
      "til": 2872,
      "à¯į\"": 2873,
      "à¦¤à¦¬": 2874,
      "à¤¹à¤°à¤£": 2875,
      "à°µà°¹": 2876,
      "à§Ģà¥¤": 2877,
      "à¤·à¤¯": 2878,
      "à²®à²¦": 2879,
      "Ġà®Ĩà®²": 2880,
      "Ġà®īà®¤": 2881,
      "Ġà®īà®¯": 2882,
      "ague": 2883,
      "Ġprot": 2884,
      "Ġà®ĩà®²à®ķ": 2885,
      "Ġà¥¨à¥¦à¥¦à¥": 2886,
      "ĠAll": 2887,
      "ike": 2888,
      ".,": 2889,
      "aid": 2890,
      "ef": 2891,
      "eal": 2892,
      "Ġà¤ĭ": 2893,
      "à²ķà²²": 2894,
      "ister": 2895,
      "Ġà²¸à²²": 2896,
      "à®ªà®Łà®¤": 2897,
      "Ġboth": 2898,
      "Ġà¤ıà¤¸": 2899,
      "Ġà¦¨à¦¤": 2900,
      "Ġà²ªà²¤": 2901,
      "ĠAnd": 2902,
      "ĠPart": 2903,
      "ĠPress": 2904,
      "ctober": 2905,
      "Ġà²ĩà²¤à²°": 2906,
      "Ġrele": 2907,
      "Ġà¤«à¤°": 2908,
      "Ġà®µà®´à®ķ": 2909,
      "ĠâĢĶ": 2910,
      "Ġà¦īà§İà¦ª": 2911,
      "Ð¸": 2912,
      "à¥ĭ,": 2913,
      "à¤²à¤ª": 2914,
      "à²³à²¦": 2915,
      "Ġ100": 2916,
      "reat": 2917,
      "Ġà¦¦à¦¶à¦ķ": 2918,
      "Ġà°²à°ķ": 2919,
      "à¦īà¦Ł": 2920,
      "ĠJune": 2921,
      "à¥Ģà¤Ĥà¥¤": 2922,
      "Ġà®ĩà®µà®°à®¤": 2923,
      "64": 2924,
      "à¦¼à§ģ": 2925,
      "à²ķà²¨": 2926,
      "eng": 2927,
      "Ġà®Ĩà®¤": 2928,
      "Ġà¦Ĩà¦Ľ": 2929,
      "usic": 2930,
      "à¦«à¦°": 2931,
      "Ġà¦«à¦°": 2932,
      "Ġbefore": 2933,
      "Ġalbum": 2934,
      "ĠâĤ": 2935,
      "à³į.": 2936,
      "à²²à²°": 2937,
      "à°®à°²": 2938,
      "Ġà²®à²§": 2939,
      "Ġpopul": 2940,
      "Ġà°®à°°à°£": 2941,
      "ĠII": 2942,
      "elf": 2943,
      "Ġà²ĩà²¤": 2944,
      "Ġà¤¸à¤®à¤°": 2945,
      "very": 2946,
      "Ġexp": 2947,
      ".\"": 2948,
      "22": 2949,
      "born": 2950,
      "rid": 2951,
      "Ġà¦¢": 2952,
      "Ġà¦Ŀ": 2953,
      "Ġà¤¸à¤¬": 2954,
      "à²Ĺà²¦à²²": 2955,
      "Ġà¤ľà¤®": 2956,
      "Ġà®ĩà®µà®±": 2957,
      "à¦¦à¦ķ": 2958,
      "Ġà®ļà®¤": 2959,
      "Ġà°ķà°°": 2960,
      "Ġ29": 2961,
      "à¤¬à¤Ī": 2962,
      "Ġà°¨à°®": 2963,
      "Ġstart": 2964,
      "Ġ40": 2965,
      "rict": 2966,
      "Ġà¤Īà¤¸": 2967,
      "quadron": 2968,
      "ĠLabour": 2969,
      "à°¯à°¶": 2970,
      "Ġopen": 2971,
      "Ġbl": 2972,
      "Ġà§Ń": 2973,
      "Ġà¦Ĩà¦ĩà¦¨": 2974,
      "Ġmain": 2975,
      "ĠPl": 2976,
      "ĠPort": 2977,
      "urch": 2978,
      "ĠWh": 2979,
      "ĠâĤ¹": 2980,
      "min": 2981,
      "Ã¡": 2982,
      "à¦°à¦ľ": 2983,
      "à¦¿:": 2984,
      "Ġà¤ķà¤Ń": 2985,
      "à¦¯à¦¤": 2986,
      "Ġà¦¸à¦ķ": 2987,
      "à®¨à®ķà®°": 2988,
      "à¤Ĺà¤¨": 2989,
      "Ġà¤µà¤¸": 2990,
      "Ġà¤°à¤ļà¤¨": 2991,
      "icial": 2992,
      "Ġph": 2993,
      "Ġpass": 2994,
      "ĠSchool": 2995,
      "ĠIs": 2996,
      "à¤«à¤¨": 2997,
      "Ġà§§à§©": 2998,
      "ourt": 2999,
      "Ġrecord": 3000,
      "à°¯à°¸": 3001,
      "à°¡à°ª": 3002,
      "Ġà¤ħà¤¥à¤µ": 3003,
      "à¤ľà¤¸": 3004,
      "âĢĶ": 3005,
      "Ġwon": 3006,
      "à¤£à¤¸": 3007,
      "omb": 3008,
      "Ġà²Ĩà²«": 3009,
      "à°¥à°ķ": 3010,
      "Ġà¦²à¦ķ": 3011,
      "Ġà®µà®°à®²": 3012,
      "ĠAss": 3013,
      "ĠBerto": 3014,
      "Ġà¦Ĳà¦¤": 3015,
      "ĠJuly": 3016,
      "lp": 3017,
      "Ð°": 3018,
      "à²ĩ": 3019,
      "à¦¾-": 3020,
      "Ġà¤ķà¤¥": 3021,
      "à¤²à¤Ĺ": 3022,
      "à¦®à¦¸": 3023,
      "ored": 3024,
      "Ġà°ªà°¬": 3025,
      "Ġsur": 3026,
      "Ġà¤¤à¤¤": 3027,
      "ives": 3028,
      "ĠHer": 3029,
      "Ġformer": 3030,
      "Ġà¦¸à¦®à¦¸": 3031,
      "à§¨à§¦à§": 3032,
      "Ġà¦ĺà¦Ł": 3033,
      "à¦°à¦®à¦£": 3034,
      "Ġshow": 3035,
      "Ġà°ıà°°": 3036,
      "conom": 3037,
      "à³¨": 3038,
      "à®°à®ķ": 3039,
      "à¤¤à¤²": 3040,
      "Ġter": 3041,
      "Ġsm": 3042,
      "Ġà°µà°¦": 3043,
      "à®´à®²": 3044,
      "Ġà§®": 3045,
      "ĠAust": 3046,
      "Ġà¤¶à¤ķ": 3047,
      "Ġmin": 3048,
      "Ġà¦ıà¦ķà¦ĩ": 3049,
      "ĠGerman": 3050,
      "erson": 3051,
      "ĠOctober": 3052,
      "Ġà§§à§¯à§ª": 3053,
      "ĠState": 3054,
      "Ġplace": 3055,
      "fess": 3056,
      "à¤®à¤§": 3057,
      "à°Ĺà°¨": 3058,
      "Ġà¤Ńà¤°": 3059,
      "Ġà¤ĩà¤®": 3060,
      "ĠCan": 3061,
      "Ġà®īà®²à®ķ": 3062,
      "Ġarea": 3063,
      "ple": 3064,
      "à°®à°£": 3065,
      "reen": 3066,
      "Ġà²ħà²ķ": 3067,
      "ross": 3068,
      "Ġhtt": 3069,
      "Ġà°¤à°®": 3070,
      "ett": 3071,
      "ird": 3072,
      "Ġà²İà²¨": 3073,
      "à¦ıà¦¨": 3074,
      "à¦°à¦£à¦¤": 3075,
      "à°ķà°°à°£": 3076,
      "aking": 3077,
      "Ġ1990": 3078,
      "Ġnumber": 3079,
      "70": 3080,
      "à¥ħ": 3081,
      "à¤¤à¤¤": 3082,
      "Ġà¦ķà¦¥": 3083,
      "Ġà¦ıà¦ĸ": 3084,
      "Ġoper": 3085,
      "Ġown": 3086,
      "Ġpublic": 3087,
      "Ġà²ħà²®": 3088,
      "Ġà²µà²¸": 3089,
      "Ġà°Ĩà°§": 3090,
      "Ġà¦¶à¦¬": 3091,
      "ĠEx": 3092,
      "à¤Ĩà¤°": 3093,
      "ĠIndia": 3094,
      "pril": 3095,
      "Ġà¤¸à¤¦à¤¸": 3096,
      "28": 3097,
      "ium": 3098,
      "ym": 3099,
      "à¯Į": 3100,
      "à³§à³": 3101,
      "à®³à®ª": 3102,
      "à®µà®ļ": 3103,
      "à¤ªà¤®": 3104,
      "à¤ľà¤®": 3105,
      "ised": 3106,
      "Ġint": 3107,
      "Ġcity": 3108,
      "Ġbook": 3109,
      "Ġà¤ļà¤ķ": 3110,
      "iving": 3111,
      "à²§à²¨": 3112,
      "Ġà®Ĵà®ª": 3113,
      "Ġrev": 3114,
      "à¤Ĩà¤Ī": 3115,
      "Ġsever": 3116,
      "akh": 3117,
      "ourn": 3118,
      "à°µà°¸à°°": 3119,
      "ograph": 3120,
      "à®µà®©à®Ļ": 3121,
      "à¤ĺà¤°": 3122,
      "Ġuntil": 3123,
      "ĠYork": 3124,
      "à°Ĺà°£à°¨": 3125,
      "Ġseries": 3126,
      "ĠNovember": 3127,
      "Ġà¤®à¤°": 3128,
      "à¤µà¤Ł": 3129,
      "Ġà¤ħà¤ļ": 3130,
      "à¤ľà¤§": 3131,
      "à¦ªà¦¦": 3132,
      "Ġmar": 3133,
      "à³Ĥ,": 3134,
      "Ġà¦¯à¦ĸà¦¨": 3135,
      "Ġhigh": 3136,
      "Ġà¤ļà¤°": 3137,
      "Ġno": 3138,
      "Ġà°ľà°¨à°Ĺà°£à°¨": 3139,
      "af": 3140,
      "ved": 3141,
      "à°¾.": 3142,
      "à®²à®°": 3143,
      "à®µà®¨": 3144,
      "à¦Łà¦¸": 3145,
      "à°¡à°°": 3146,
      "à¤Łà¤¬": 3147,
      "Ġà®ħà®³": 3148,
      "Ġà®ļà®©": 3149,
      "itt": 3150,
      "Ġcount": 3151,
      "Ġà¤²à¤ķ": 3152,
      "Ġbro": 3153,
      "à¤¼à¥ĭà¤Ĥ": 3154,
      "Ġà°ħà°ª": 3155,
      "Ġdown": 3156,
      "ĠBr": 3157,
      "Ġ2023": 3158,
      "Ġà¦Ĩà¦°à¦ĵ": 3159,
      "ootball": 3160,
      "Ġbuild": 3161,
      "Ġfamily": 3162,
      "ax": 3163,
      "ham": 3164,
      "à®¤à®Ļ": 3165,
      "à²°à²¬": 3166,
      "Ġà¤®à¤¤": 3167,
      "inc": 3168,
      "Ġà¤ªà¤ķ": 3169,
      "à²³à²²": 3170,
      "ani": 3171,
      "à¥Ĥà¤Ĥ": 3172,
      "Ġà¤¦à¤¶à¤ķ": 3173,
      "Ġà°µà°¨à°°": 3174,
      "ĠCo": 3175,
      "Ġà²¬à²¦à²²": 3176,
      "stru": 3177,
      "à²¶à²¸": 3178,
      "eth": 3179,
      "à¤ĩà¤²": 3180,
      "à¤ĩà¤ľ": 3181,
      "owever": 3182,
      "ĠOff": 3183,
      "ĠKaz": 3184,
      "illion": 3185,
      "Ġà¤ĳà¤¸": 3186,
      "Ġestab": 3187,
      "09": 3188,
      "ĠÂ°": 3189,
      "Ġà®·": 3190,
      "à®°à®©": 3191,
      "à²¾,": 3192,
      "à°²à°ª": 3193,
      "Ġà¤¹à¤®": 3194,
      "à¤µà¤¶": 3195,
      "à²¯à²¸": 3196,
      "à¤¹à¤¤": 3197,
      "Ġà¦ıà¦Ĺ": 3198,
      "Ġà¦ıà¦Ľ": 3199,
      "ata": 3200,
      "Ġà°ªà°¶": 3201,
      "à¤ľà¤ķ": 3202,
      "à°ļà°°": 3203,
      "ĠGu": 3204,
      "ott": 3205,
      "Ġà²İà²¡": 3206,
      "osed": 3207,
      "Ġà¤īà¤ªà¤²à¤¬": 3208,
      "ants": 3209,
      "Ġà¦§à¦°à¦¨": 3210,
      "Ġorig": 3211,
      "Ġà¤ħà¤¸à¤¤": 3212,
      "sh": 3213,
      "à¦¨à¦Ĺ": 3214,
      "à¤ªà¤¦": 3215,
      "Ġà°ªà°¥à°ķ": 3216,
      "Ġà¦¤à¦ĸà¦¨": 3217,
      "Ġà¤ªà¤°à¤®": 3218,
      "amed": 3219,
      "irc": 3220,
      "Ġà®ĩà®²à®Ļ": 3221,
      "Ġcompet": 3222,
      "ele": 3223,
      "à¤¹à¤®": 3224,
      "Ġà¤ľà¤°": 3225,
      "à°µà°¡": 3226,
      "à¤Ĺà¤®": 3227,
      "Ġà¤¬à¤¦à¤²": 3228,
      "Ġcap": 3229,
      "Ġpubl": 3230,
      "ĠApril": 3231,
      "à²£à²¦à²²": 3232,
      "ĠBh": 3233,
      "Ġà°¬à°¯": 3234,
      "ĠGl": 3235,
      "à°°à°¤à°¦": 3236,
      "rick": 3237,
      "Ġà¤ľà¤¬à¤ķ": 3238,
      "à¦¨à¦¸à¦Ń": 3239,
      "ĠGeor": 3240,
      "29": 3241,
      "à°¨à°¤": 3242,
      "ink": 3243,
      "Ġà¦¬à¦¯": 3244,
      "Ġsong": 3245,
      "à¦Ńà¦ķ": 3246,
      "Ġà²Ĩà²§": 3247,
      "Ġà§§à§¯": 3248,
      "Ġà¥©": 3249,
      "à¦°à¦¦à¦°": 3250,
      "Ġjoin": 3251,
      "Ġà®īà®£à®µ": 3252,
      "stitute": 3253,
      "Ġpolit": 3254,
      "Ġà¥¨à¥¦à¥§à¥": 3255,
      "27": 3256,
      "rent": 3257,
      "à®Łà®£": 3258,
      "à¤²à¤°": 3259,
      "iness": 3260,
      "à¦¸à¦ª": 3261,
      "à°¦à°ķ": 3262,
      "à¤¦à¤ķ": 3263,
      "à²¸à²¬à²¹": 3264,
      "à¦ªà¦¥": 3265,
      "Ġà²®à²¨": 3266,
      "à²®à²ķ": 3267,
      "Ġà¦ħà¦²": 3268,
      "Ġback": 3269,
      "Ġà¦¨à¦¦": 3270,
      "à²·à²¨": 3271,
      "ĠHis": 3272,
      "Ġà§§à§ª": 3273,
      "Ġnear": 3274,
      "ĠNorth": 3275,
      "à¦«à¦²": 3276,
      "hern": 3277,
      "Ġà²Ĵà²³à²Ĺ": 3278,
      "Ġ1970": 3279,
      "Ġchar": 3280,
      "35": 3281,
      "ner": 3282,
      "Ġà²Ĳ": 3283,
      "à¤¨à¤¯": 3284,
      "à²¨à²µà²¨": 3285,
      "à°Łà°¨": 3286,
      "Ġà®µà®³": 3287,
      "à°Ĺà°µ": 3288,
      "Ġfin": 3289,
      "ret": 3290,
      "Ġà¦ķà¦°à¦Ľ": 3291,
      "Ġà²ħà²¡": 3292,
      "Ġà¦¨à¦¯": 3293,
      "Ġmilit": 3294,
      "Ġà°īà°¦": 3295,
      "Ġà°°à°ķ": 3296,
      "Ġà°Ĩà°ķ": 3297,
      "à²¹à²¦": 3298,
      "ract": 3299,
      "Ġem": 3300,
      "Ġbegan": 3301,
      "Ġhead": 3302,
      "Ġ1991": 3303,
      "Ġ1980": 3304,
      "Ġà¦īà¦ªà¦¸": 3305,
      "Ġused": 3306,
      "ĠParty": 3307,
      "21": 3308,
      "75": 3309,
      "side": 3310,
      "Ġà¤¢": 3311,
      "à¤µà¤°à¤£": 3312,
      "Ġà®®à®ķà®³": 3313,
      "à°®à°°": 3314,
      "à°Łà°£": 3315,
      "à¤·à¤¦": 3316,
      "à²Łà²µ": 3317,
      "à®ªà®Łà®®": 3318,
      "Ġà¤Ńà¤Ĺà¤µ": 3319,
      "ĠCity": 3320,
      "ĠMal": 3321,
      "ĠMul": 3322,
      "omen": 3323,
      "ided": 3324,
      "rain": 3325,
      "ular": 3326,
      "Ġ1998": 3327,
      "à³¦à³": 3328,
      "Ġlocal": 3329,
      "Ġà¦ĩà¦īà¦°": 3330,
      "ĠAfric": 3331,
      "Ġseveral": 3332,
      ");": 3333,
      "dition": 3334,
      "Ġà¤ªà¤¢": 3335,
      "à¦®à¦ª": 3336,
      "à°¸à°Ń": 3337,
      "Ġà¤¦à¤¸": 3338,
      "à¤·à¤°": 3339,
      "à¤¥à¤¨": 3340,
      "à¦·à¦¦": 3341,
      "Ġà²ªà²Ł": 3342,
      "à¤ıà¤®": 3343,
      "à²·à²Ĺà²³": 3344,
      "stan": 3345,
      "Ġrece": 3346,
      "Ġà®ħà®µà®°à®¤": 3347,
      "Ġà®Īà®Ł": 3348,
      "Ġreturn": 3349,
      "Ġcalled": 3350,
      "vent": 3351,
      "ÙĦ": 3352,
      "à°¨à°®": 3353,
      "à¦ķà¦¸": 3354,
      "à²¨à²¨": 3355,
      "à¦®à¦¯": 3356,
      "ern": 3357,
      "à°¡à°¨": 3358,
      "Ġwill": 3359,
      "Ġà®İà®¨": 3360,
      "ilt": 3361,
      "Ġà¤ĩà¤¸à¤²": 3362,
      "Ġà°²à°Ń": 3363,
      "ctions": 3364,
      "Ġà¤ľà¤¨à¤µà¤°": 3365,
      "Ġevent": 3366,
      "Ġà¦¸à¦¬à¦ļ": 3367,
      "ĠItalian": 3368,
      "26": 3369,
      "ause": 3370,
      "ris": 3371,
      "sy": 3372,
      "à®ĥà®ª": 3373,
      "à°°à°ľ": 3374,
      "à®®à®£": 3375,
      "Ġà¤¸à¤²": 3376,
      "Ġtit": 3377,
      "à°¤à°²": 3378,
      "à§ĭà¥¤": 3379,
      "à¤§à¤¤": 3380,
      "ĠCol": 3381,
      "ĠCollege": 3382,
      "oman": 3383,
      "ĠBar": 3384,
      "ĠPri": 3385,
      "à²¶à²µ": 3386,
      "Ġà¤ķà¤°à¤ķ": 3387,
      "Ġland": 3388,
      "Ġà²ľà²¨à²°": 3389,
      "ission": 3390,
      "Ġreleased": 3391,
      "Ñģ": 3392,
      "ĠÃ": 3393,
      "à°ħ": 3394,
      "à¤ķà¤ª": 3395,
      "à°¨à°ķ": 3396,
      "Ġà¤®à¤ľ": 3397,
      "ines": 3398,
      "Ġà®ķà®µ": 3399,
      "Ġà°¸à°Ń": 3400,
      "à¤¬à¤¦": 3401,
      "Ġà¦¹à¦ļ": 3402,
      "à¦·à¦¤": 3403,
      "Ġà°¨à°Ĺà°°": 3404,
      "à¦¥à¦²": 3405,
      "à¦¼à¦¾,": 3406,
      "Ġmed": 3407,
      "ille": 3408,
      "Ġà²¬à²£": 3409,
      "els": 3410,
      "ety": 3411,
      "Ġgovernment": 3412,
      "Ġà®ķà®Łà®²": 3413,
      "ments": 3414,
      "Ġcomple": 3415,
      "ible": 3416,
      "mig": 3417,
      "ve": 3418,
      "ĠØ": 3419,
      "à¦¯à¦¦": 3420,
      "à¦ķà¦¶": 3421,
      "à¤¸à¤¤": 3422,
      "Ġà¤®à¤¶": 3423,
      "à¤µà¤ķ": 3424,
      "à§ģà¦ģ": 3425,
      "Ġà¦ªà¦£": 3426,
      "Ġà¦¬à¦¸": 3427,
      "Ġold": 3428,
      "Ġfive": 3429,
      "Ġà¦¤à¦¤": 3430,
      "Ġà¤ıà¤¨": 3431,
      "Ġà¤¤à¤Ł": 3432,
      "à²£à²µà²¨": 3433,
      "Ġà¦¶à¦°": 3434,
      "Ġlong": 3435,
      "cept": 3436,
      "Ġ31": 3437,
      "osp": 3438,
      "Ġà¤¡à¤ļ": 3439,
      "ĠInternational": 3440,
      "Ġalong": 3441,
      "Ġprogram": 3442,
      "Ġ188": 3443,
      "Ġmany": 3444,
      "ĠKazakh": 3445,
      "ĠMulder": 3446,
      "04": 3447,
      "07": 3448,
      "co": 3449,
      "med": 3450,
      "Ã³": 3451,
      "Ġ\\": 3452,
      "à²µà²¹": 3453,
      "à°¤à°ķ": 3454,
      "Ġà¦ªà¦²": 3455,
      "Ġà®¤à®¨": 3456,
      "ange": 3457,
      "à°¸à°®": 3458,
      "Ġà¤¬à¤ľ": 3459,
      "à¯ĩ.": 3460,
      "Ġsystem": 3461,
      "Ġhome": 3462,
      "iles": 3463,
      "Ġà¦Ĺà¦²": 3464,
      "ĠHar": 3465,
      "ĠRe": 3466,
      "ĠReg": 3467,
      "Ġà§§à§Ń": 3468,
      "usiness": 3469,
      "Ġà¦Ľà¦¬": 3470,
      "Ġà°İà°²": 3471,
      "Ġprodu": 3472,
      "uthor": 3473,
      "Ġà²ĵ": 3474,
      "à®ªà®³": 3475,
      "à²°à²¤à²¦": 3476,
      "à²¤à²²": 3477,
      "à¤®à¤£": 3478,
      "Ġà®ķà®´": 3479,
      "Ġà®µà®Łà®ķ": 3480,
      "Ġsame": 3481,
      "Ġsince": 3482,
      "Ġà²¸à²¦": 3483,
      "Ġà®Ĩà®°à®®": 3484,
      "ĠSing": 3485,
      "Ġà¦ľà¦¯": 3486,
      "à¤ĸà¤¤": 3487,
      "ĠMan": 3488,
      "Ġà°¦à°ķ": 3489,
      "Ġà°Ĩà°¶": 3490,
      "à²ļà²°": 3491,
      "à¦īà¦ľ": 3492,
      "Ġ189": 3493,
      "Ġà¦ĺà¦Łà¦¨": 3494,
      "Ġà¤Ĩà¤µà¤¶": 3495,
      "ajor": 3496,
      "63": 3497,
      "65": 3498,
      "ae": 3499,
      "ean": 3500,
      "à®¯à®µà®°": 3501,
      "Ġà¤µà¤¨": 3502,
      "ency": 3503,
      "ari": 3504,
      "Ġob": 3505,
      "Ġà°ķà°Ł": 3506,
      "Ġà¦®à¦°": 3507,
      "à¤·à¤®à¤¤": 3508,
      "à¦¹à¦®": 3509,
      "ĠCount": 3510,
      "Ġtook": 3511,
      "Ġà²¹à²°": 3512,
      "Ġà²¹à²²à²µ": 3513,
      "Ġà²Ĩà²¯": 3514,
      "ures": 3515,
      "Ġà¦ĵà¦ªà¦°": 3516,
      "ĠWill": 3517,
      "à¤ĩà¤¸": 3518,
      "Ġstate": 3519,
      "Ġproject": 3520,
      "Ġ1995": 3521,
      "à²¯à²µà²¸": 3522,
      "Ġ2024": 3523,
      "Ġà²¬à²³à²ķ": 3524,
      "Ġremain": 3525,
      "Ġfollowing": 3526,
      "por": 3527,
      "ped": 3528,
      "sc": 3529,
      "à°Ĩ": 3530,
      "à®°à®³": 3531,
      "à°°à°¯": 3532,
      "à²¨à²Ĺà²³": 3533,
      "à²µà²¸": 3534,
      "ering": 3535,
      "à¦Łà¦¬à¦²": 3536,
      "à°¯à°¬à°¡": 3537,
      "Ġà¦ıà¦¤": 3538,
      "Ġà®µà®¯à®¤": 3539,
      "ality": 3540,
      "ĠCor": 3541,
      "Ġà²¹à²¤": 3542,
      "ility": 3543,
      "Ġà§§à§¬": 3544,
      "Ġà²¦à²ķ": 3545,
      "à®ªà®¤à®±": 3546,
      "Ġ1999": 3547,
      "à§¨à§¦": 3548,
      "ization": 3549,
      "05": 3550,
      "ged": 3551,
      "oad": 3552,
      "Äģ": 3553,
      "à¯ģ)": 3554,
      "ery": 3555,
      "Ġà¦ıà¦ª": 3556,
      "estern": 3557,
      "Ġà¦ħà¦Ĺ": 3558,
      "ington": 3559,
      "Ġà¦¨à¦Ń": 3560,
      "à¦§à¦¨": 3561,
      "Ġà¦Ĩà¦§": 3562,
      "Ġà®īà®Łà®©": 3563,
      "ured": 3564,
      "Ġname": 3565,
      "à®ªà®°à®¤": 3566,
      "Ġà®®à®ķà®©": 3567,
      "ĠEnglish": 3568,
      "Ġsingle": 3569,
      "ĠAustral": 3570,
      "\"à¥¤": 3571,
      "79": 3572,
      "yn": 3573,
      "ze": 3574,
      "à¥¯": 3575,
      "à²°à²Ń": 3576,
      "à®³à®ķ": 3577,
      "eration": 3578,
      "à°¯à°¡": 3579,
      "Ġà¦ķà¦¨": 3580,
      "à¤ªà¤£": 3581,
      "à°µà°ļ": 3582,
      "à¤Ĺà¤łà¤¨": 3583,
      "alk": 3584,
      "Ġcar": 3585,
      "Ġcol": 3586,
      "à²ªà²¦": 3587,
      "ĠAb": 3588,
      "Ġà¦ľà¦²": 3589,
      "Ġà¦Ĺà¦£": 3590,
      "ĠDuring": 3591,
      "Ġstr": 3592,
      "à¤Łà¤°à¤¨": 3593,
      "que": 3594,
      "Ġ80": 3595,
      "Ġeng": 3596,
      "Ġlocated": 3597,
      "Ġoriginal": 3598,
      "ny": 3599,
      "ven": 3600,
      "Ðµ": 3601,
      "à®Łà®µ": 3602,
      "Ġà®ĩà®Łà®Ļ": 3603,
      "Ġà¤°à¤ķ": 3604,
      "à¤¬à¤¤": 3605,
      "reet": 3606,
      "Ġà°®à°¨": 3607,
      "Ġà¦Ĩà¦¶": 3608,
      "Ġà¦°à¦¬": 3609,
      "Ġà°ļà°°": 3610,
      "à°¶à°ķ": 3611,
      "à²¶à²¨": 3612,
      "ĠRuss": 3613,
      "unity": 3614,
      "umb": 3615,
      "à§¦à§¦à§¦": 3616,
      "à§¨à§¦à§§à§": 3617,
      "the": 3618,
      "à¦°à¦ĵ": 3619,
      "à®°à®µ": 3620,
      "à°¨à°Ł": 3621,
      "à²¯à²µà²°": 3622,
      "Ġà¦ıà¦¨": 3623,
      "Ġà¤ħà¤«": 3624,
      "Ġà¤°à¤¸": 3625,
      "à²ªà²ķ": 3626,
      "roup": 3627,
      "Ġmet": 3628,
      "Ġmark": 3629,
      "Ġdem": 3630,
      "ĠMin": 3631,
      "imate": 3632,
      "rac": 3633,
      "ages": 3634,
      "Ġà²īà²³": 3635,
      "Ġà§§à§¯à§¨": 3636,
      "à¤Ĩà¤¤": 3637,
      "Ġval": 3638,
      "Ġà¤Īà¤°": 3639,
      "Ġtechn": 3640,
      "ĠComp": 3641,
      "Ġinvest": 3642,
      "ĠRepublic": 3643,
      "43": 3644,
      "aign": 3645,
      "eed": 3646,
      "fl": 3647,
      "yp": 3648,
      "à²Ľ": 3649,
      "à¥ģà¤ģ": 3650,
      "Ġà®ķà®®": 3651,
      "Ġà¤ľà¤Ĺ": 3652,
      "ana": 3653,
      "Ġà®µà®ļ": 3654,
      "Ġwin": 3655,
      "à¦·à¦®à¦¤": 3656,
      "Ġà²ķà²¨": 3657,
      "Ġà¦Ĩà¦«": 3658,
      "à±Īà°Ĥ": 3659,
      "ĠIm": 3660,
      "à°·à°ķ": 3661,
      "Ġlast": 3662,
      "ays": 3663,
      "unicip": 3664,
      "resent": 3665,
      "ĠKing": 3666,
      "Ġà®ħà®°à®£": 3667,
      "Ġà®ķà®²à®¨": 3668,
      "Ġà¤ªà¤¹à¤ļ": 3669,
      "ody": 3670,
      "à§İà¦¸": 3671,
      "Ġresult": 3672,
      "Ġcontin": 3673,
      "ually": 3674,
      "Ġdisc": 3675,
      "www": 3676,
      "à°ľà°ķà°µà°°": 3677,
      "ridge": 3678,
      "ches": 3679,
      "me": 3680,
      "sum": 3681,
      "à¥ĩ-": 3682,
      "à¤²à¤¸": 3683,
      "à¦²à¦Ĺ": 3684,
      "à¥Ī:": 3685,
      "à¤¡à¤®": 3686,
      "Ġà²ªà²¶": 3687,
      "Ġà¦¦à¦°": 3688,
      "Ġhouse": 3689,
      "adem": 3690,
      "Ġeff": 3691,
      "à°¥à°²": 3692,
      "à¤¼à¥Ģ)": 3693,
      "à¤īà¤¤": 3694,
      "Ġ978": 3695,
      "Ġclass": 3696,
      "Ġattack": 3697,
      "Ġà¤ħà¤Ĺà¤¸": 3698,
      "line": 3699,
      "ma": 3700,
      "Ġà°Ķ": 3701,
      "Ġà°Ľ": 3702,
      "à¤°à¤ļà¤¨": 3703,
      "à¥ĩ)": 3704,
      "à¦¿.": 3705,
      "Ġà¤ķà¤¬": 3706,
      "à¤¸à¤µ": 3707,
      "à¤¦à¤®": 3708,
      "orm": 3709,
      "ats": 3710,
      "à°Ĺà°¤": 3711,
      "Ġà°µà°²": 3712,
      "à¦¡à¦¸": 3713,
      "Ġà®Ĩà®Ļ": 3714,
      "à¤¼à¥ĭ": 3715,
      "Ġà¤Ĩà¤¶": 3716,
      "à¦ļà¦ķ": 3717,
      "Ġmusic": 3718,
      "à¤Ńà¤µ": 3719,
      "ĠBrit": 3720,
      "Ġà°İà°¦": 3721,
      "Ġà¦īà¦ªà¦ľ": 3722,
      "Ġà³¨à³¦à³¦à³": 3723,
      "03": 3724,
      "ful": 3725,
      "hi": 3726,
      "ya": 3727,
      "à¤¨à¤ľ": 3728,
      "à±ģ)": 3729,
      "à²µà²µ": 3730,
      "Ġà®ªà®ļ": 3731,
      "Ġà¦¬à¦¹": 3732,
      "à®£à®©": 3733,
      "Ġdid": 3734,
      "ĠBe": 3735,
      "Ġà¦īà¦ł": 3736,
      "Ġà¦Ĺà¦¡": 3737,
      "Ġgu": 3738,
      "Ġwithin": 3739,
      "Ġà¥§à¥®": 3740,
      "Ġresp": 3741,
      "Ġround": 3742,
      "ruary": 3743,
      "ebruary": 3744,
      "formation": 3745,
      "na": 3746,
      "ues": 3747,
      "à¤¾:": 3748,
      "à¤°à¤§": 3749,
      "à®¤à®¨": 3750,
      "à®±à®²": 3751,
      "à¦¤à¦²": 3752,
      "à²¤à²µà²¨": 3753,
      "à¦¬à¦¦": 3754,
      "à°µà°¯": 3755,
      "à¦ľà¦Ł": 3756,
      "Ġcur": 3757,
      "ĠMed": 3758,
      "Ġà°Ĩà°¡": 3759,
      "ĠThey": 3760,
      "ĠDav": 3761,
      "Ġà¦Ńà¦¬à¦¨": 3762,
      "Ġà°ĩà°¨": 3763,
      "aving": 3764,
      "ĠChar": 3765,
      "Ġ1971": 3766,
      "Ġparty": 3767,
      "Ġhttps": 3768,
      "augh": 3769,
      "ford": 3770,
      "ha": 3771,
      "tra": 3772,
      "à²ĥ": 3773,
      "à²°à²Ĺ": 3774,
      "à¦ķà¦¨": 3775,
      "à¦¸à¦Ł": 3776,
      "à²ķà²¤": 3777,
      "Ġà®ĩà®Łà®¤": 3778,
      "Ġà®Ĩà®ª": 3779,
      "rol": 3780,
      "à¤ĸà¤°": 3781,
      "ĠHouse": 3782,
      "Ġà®Ĵà®Ł": 3783,
      "ĠEd": 3784,
      "ĠEl": 3785,
      "Ġà²¶à²¤à²®": 3786,
      "ests": 3787,
      "Ġà²ļà²²à²¨": 3788,
      "Ġproduc": 3789,
      "Ġprofess": 3790,
      "Ġ1994": 3791,
      "Ġ1997": 3792,
      "ounced": 3793,
      "Ġà°ıà°¡": 3794,
      "Ġà®ĵà®Ł": 3795,
      "à¦Ĩà¦ĩ": 3796,
      "Ġà®¤à®°à®µ": 3797,
      "45": 3798,
      "Ùħ": 3799,
      "à°°à°¦à°°": 3800,
      "à®®à®Ļ": 3801,
      "à®©à®Ļ": 3802,
      "à²¨à²¡": 3803,
      "Ġà¤®à¤¸": 3804,
      "à°®à°ķ": 3805,
      "Ġà¤īà¤®": 3806,
      "Ġà¤Ĩà¤ªà¤ķ": 3807,
      "Ġà¤ĩà¤ķ": 3808,
      "Ġmay": 3809,
      "Ġà°Ĩà°Ł": 3810,
      "Ġà¦¶à¦ķ": 3811,
      "à²ľà²ķ": 3812,
      "ider": 3813,
      "ĠEu": 3814,
      "istor": 3815,
      "Ġsec": 3816,
      "Ġ1996": 3817,
      "ording": 3818,
      "ampions": 3819,
      "ĠLeague": 3820,
      "Ġearly": 3821,
      "Ġsmall": 3822,
      "get": 3823,
      "ior": 3824,
      "lished": 3825,
      "ued": 3826,
      "Ġ_{": 3827,
      "à°°à°¨": 3828,
      "à°²à°°": 3829,
      "Ġtr": 3830,
      "à¤¦à¤¡": 3831,
      "à¤Łà¤°à¤®": 3832,
      "Ġà¤¨à¤°": 3833,
      "Ġweb": 3834,
      "Ġsaid": 3835,
      "Ġà²ķà²³": 3836,
      "Ġà®İà®©à®µ": 3837,
      "Ġà®Ĵà®¤": 3838,
      "Ġà®Ĵà®³": 3839,
      "Ġnamed": 3840,
      "Ġgr": 3841,
      "Ġà¤ĸà¤°": 3842,
      "riend": 3843,
      "ified": 3844,
      "Ġrun": 3845,
      "epend": 3846,
      "Ġchild": 3847,
      "Ġà¤ľà¤¨à¤¸": 3848,
      "Ġappro": 3849,
      "Ġà¤ħà¤µà¤§": 3850,
      "ĠCalif": 3851,
      "Ġcharact": 3852,
      "aim": 3853,
      "year": 3854,
      "Ð½": 3855,
      "Ġà®ĥà®ª": 3856,
      "à®¿)": 3857,
      "Ġà®ªà®¤à®µ": 3858,
      "à¦Łà¦Ĺ": 3859,
      "à¤¦à¤µ": 3860,
      "à®ļà®ª": 3861,
      "Ġsuc": 3862,
      "Ġsix": 3863,
      "ĠSm": 3864,
      "ĠAcc": 3865,
      "Ġà®īà®ª": 3866,
      "Ġmod": 3867,
      "Ġà¦ıà¦ķà¦ķ": 3868,
      "Ġà¤ļà¤®à¤Ĺ": 3869,
      "à¦ĸà¦¤": 3870,
      "ĠHigh": 3871,
      "ĠFebruary": 3872,
      "Ġà²İà²Ĺ": 3873,
      "Ġgen": 3874,
      "Ġà¦ľà¦¨à¦¸": 3875,
      "ĠEm": 3876,
      "agaz": 3877,
      "Ġstation": 3878,
      "osition": 3879,
      "à®ªà®°à®ª": 3880,
      "apan": 3881,
      "Ġà¤§à¤¨": 3882,
      "Ġrace": 3883,
      "Ġà²ıà²ķ": 3884,
      "ext": 3885,
      "Ġpopulation": 3886,
      "Ġpublished": 3887,
      "ĠCaliforn": 3888,
      "01": 3889,
      "68": 3890,
      "à²¢": 3891,
      "à¯į;": 3892,
      "à®Łà®©à®°": 3893,
      "à®ªà®Ļ": 3894,
      "à±ģâĢĮ": 3895,
      "à²°à²ľ": 3896,
      "à²¯à²Ĺà²³à²¨": 3897,
      "Ġà®ķà®ª": 3898,
      "Ġà¤ľà¤²à¤µ": 3899,
      "Ġà®ĩà®³": 3900,
      "Ġà¤ħà¤¦": 3901,
      "Ġà°ªà°¡": 3902,
      "Ġà°ķà°®": 3903,
      "ales": 3904,
      "Ġà¤¦à¤²": 3905,
      "à¦¶à¦Ł": 3906,
      "Ġcor": 3907,
      "Ġà²ªà²ķ": 3908,
      "Ġà¦Ĩà¦¤": 3909,
      "Ġà¦ľà¦®": 3910,
      "à¤ıà¤¨": 3911,
      "Ġmajor": 3912,
      "Ġà°Ĩà°¨": 3913,
      "ĠPan": 3914,
      "ival": 3915,
      "à²ľà²°": 3916,
      "raq": 3917,
      "à¥Įà¤Ĥ": 3918,
      "ocial": 3919,
      "Ġdeb": 3920,
      "Ġà¤īà¤ªà¤¸": 3921,
      "à²ķà²°à²£": 3922,
      "Ġkm": 3923,
      "Ġkill": 3924,
      "Ġà§¨à§¦à§§à§¯": 3925,
      "Ġparticip": 3926,
      "à°°à°µà°¹": 3927,
      "Ġmanag": 3928,
      "Ġspecies": 3929,
      "Ġà¦®à¦¸à¦ľ": 3930,
      "47": 3931,
      "67": 3932,
      "ched": 3933,
      "ole": 3934,
      "ring": 3935,
      "ÃŃ": 3936,
      "à®ªà®£": 3937,
      "à¥ĭ.": 3938,
      "int": 3939,
      "à¤µà¤¯": 3940,
      "à¦®à¦£": 3941,
      "à¦¸à¦¦": 3942,
      "à¤ªà¤²": 3943,
      "à²¸à²¨": 3944,
      "Ġà®ļà®ª": 3945,
      "Ġwent": 3946,
      "à¦ªà¦®": 3947,
      "Ġà°ħà°¡": 3948,
      "Ġmillion": 3949,
      "ama": 3950,
      "à²§à²°": 3951,
      "Ġà§§à§¨": 3952,
      "Ġà°¸à°®à°¯": 3953,
      "ĠArmy": 3954,
      "Ġ1960": 3955,
      "ological": 3956,
      "à®µà®²à®°": 3957,
      "Ġflag": 3958,
      "ĠCalifornia": 3959,
      "je": 3960,
      "less": 3961,
      "à¥Ģ:": 3962,
      "à®±à®Ļ": 3963,
      "à®¯à®ķà®®": 3964,
      "Ġaround": 3965,
      "à°ķà°Ł": 3966,
      "à¤µà¤ľ": 3967,
      "à¤Ĺà¤¦": 3968,
      "Ġwe": 3969,
      "Ġfootball": 3970,
      "Ġà¦¨à¦¬": 3971,
      "ĠAm": 3972,
      "ĠMon": 3973,
      "à¯Ģ.": 3974,
      "ĠIraq": 3975,
      "à¤Ńà¤°": 3976,
      "ĠPar": 3977,
      "Ġà®İà®©à®ª": 3978,
      "Ġà²ĩà²µà²°": 3979,
      "ĠGeneral": 3980,
      "ership": 3981,
      "Ġeconom": 3982,
      "à±ĥà°Ĥ": 3983,
      "Ġred": 3984,
      "Ġcompany": 3985,
      "Ġà¤°à¤ĸà¤¤": 3986,
      "Ġimp": 3987,
      "Ġdesc": 3988,
      "ien": 3989,
      "iod": 3990,
      "sk": 3991,
      "à³«": 3992,
      "à®¯à®ļ": 3993,
      "ino": 3994,
      "à²µà²³": 3995,
      "à°¸à°µ": 3996,
      "Ġcare": 3997,
      "Ġà¤Ĺà¤£": 3998,
      "Ġbas": 3999,
      "Ġà²ķà²µ": 4000,
      "Ġdel": 4001,
      "Ġà°¦à°°": 4002,
      "ĠLa": 4003,
      "ĠNo": 4004,
      "ung": 4005,
      "Ġany": 4006,
      "à°µà°°à°£": 4007,
      "ĠVas": 4008,
      "oung": 4009,
      "Ġrest": 4010,
      "ĠIndian": 4011,
      "Ġelection": 4012,
      "ĠPortug": 4013,
      "Ġestablished": 4014,
      "Ġreceived": 4015,
      "39": 4016,
      "58": 4017,
      "rist": 4018,
      "à¤¸à¤ª": 4019,
      "Ġà¤¹à¤¸": 4020,
      "Ġà¦ªà¦¥": 4021,
      "ories": 4022,
      "Ġà¦ıà¦ĸà¦¨": 4023,
      "à®£à®µà®°": 4024,
      "ally": 4025,
      "Ġà°µà°¹": 4026,
      "icle": 4027,
      "à¦ĩà¦®": 4028,
      "Ġmember": 4029,
      "Ġdif": 4030,
      "ivision": 4031,
      "Ġà²Ĩà²¡": 4032,
      "Ġà¦ĵà¦ł": 4033,
      "Ġà¥«": 4034,
      "Ġà²¶à²ķ": 4035,
      "Ġ1992": 4036,
      "à§§à§¦": 4037,
      "Ġà®ħà®µà®³": 4038,
      "rench": 4039,
      "Ġactiv": 4040,
      "SA": 4041,
      "à²°à²¯": 4042,
      "à®©à®µ": 4043,
      "à¦¯à¦ª": 4044,
      "à¦®à¦ľ": 4045,
      "Ġà¦¸à¦¤": 4046,
      "à¤ªà¤·": 4047,
      "à°Łà°®": 4048,
      "Ġà¦ıà¦¶": 4049,
      "ately": 4050,
      "à¥Ĥà¤ģ": 4051,
      "Ġà¤īà¤¡": 4052,
      "aster": 4053,
      "à¦·à¦®": 4054,
      "Ġprom": 4055,
      "Ġà¤ıà¤®": 4056,
      "Ġà¤ļà¤²à¤¤": 4057,
      "Ġà¦ĩà¦¸": 4058,
      "Ġà¤¸à¤®à¤¸": 4059,
      "ote": 4060,
      "à¦ıà¦ĩ": 4061,
      "ript": 4062,
      "Ġà²Ĵà²¤": 4063,
      "Ġà°İà°¡": 4064,
      "Ġvis": 4065,
      "ĠStreet": 4066,
      "Ġà¤Ľà¤¤": 4067,
      "ference": 4068,
      "Ġserved": 4069,
      "attle": 4070,
      "ribut": 4071,
      "Ġannounced": 4072,
      "ĠResearch": 4073,
      "02": 4074,
      "oard": 4075,
      "à¦¯à¦¤à¦®": 4076,
      "à®±à®µà®°": 4077,
      "à²Ĺà²£": 4078,
      "Ġà¤ħà¤¶": 4079,
      "Ġocc": 4080,
      "Ġà®¨à®²": 4081,
      "Ġband": 4082,
      "Ġborn": 4083,
      "Ġà²ħà²Ĺ": 4084,
      "ĠAg": 4085,
      "Ġà¦ľà¦°": 4086,
      "à¤ĸà¤ķ": 4087,
      "Ġà°°à°µ": 4088,
      "à°ľà°¯à°¨": 4089,
      "à²¶à²¦à²²": 4090,
      "Ġlaw": 4091,
      "ĠWith": 4092,
      "à¦ıà¦«": 4093,
      "à¤°à¤®à¤£": 4094,
      "Ġ1993": 4095,
      "Ġ2025": 4096,
      "ĠArt": 4097,
      "ĠScience": 4098,
      "Ġtrain": 4099,
      "Ġbuilt": 4100,
      "ĠTechn": 4101,
      "ĠCounty": 4102,
      "38": 4103,
      "back": 4104,
      "serv": 4105,
      "à¤°à¤µà¤°": 4106,
      "à²¨à²ķ": 4107,
      "à²¨à²¦à²²": 4108,
      "hest": 4109,
      "à®£à®°": 4110,
      "ense": 4111,
      "à¦ĩà¦ª": 4112,
      "Ġport": 4113,
      "Ġpoin": 4114,
      "Ġà²ħà²¦à²¨": 4115,
      "à²ªà²¦à²²": 4116,
      "ĠCourt": 4117,
      "à¥Īà¤Ĥ:": 4118,
      "Ġà²¬à²¡": 4119,
      "ola": 4120,
      "à²¶à²Ĺà²³à²²": 4121,
      "ĠDist": 4122,
      "à¤¤à¤°à¤°": 4123,
      "Ġgeneral": 4124,
      "Ġanother": 4125,
      "Ġdeath": 4126,
      "artment": 4127,
      "Ġà¤°à¤¹à¤¨": 4128,
      "ugg": 4129,
      "Ġ60": 4130,
      "ected": 4131,
      "Ġà®ĵà®µ": 4132,
      "Ġà¤°à¤ĸà¤¨": 4133,
      "ront": 4134,
      "Ġuse": 4135,
      "Ġà°¸à°¹à°ķ": 4136,
      "Ġcampaign": 4137,
      "ĠGeorge": 4138,
      "ĠEurop": 4139,
      "agazine": 4140,
      "eh": 4141,
      "Ġes": 4142,
      "à³į-": 4143,
      "à¤ķà¤µ": 4144,
      "à¥ĭà¥¤": 4145,
      "à²¦à²Ĺ": 4146,
      "à²¯à²ª": 4147,
      "Ġà¦ªà¦¤": 4148,
      "à°®à°¤": 4149,
      "Ġà®ħà®µà®±": 4150,
      "arn": 4151,
      "ald": 4152,
      "à¤¡à¤¨": 4153,
      "à¤·à¤®": 4154,
      "Ġcr": 4155,
      "Ġcould": 4156,
      "à¤§à¤°": 4157,
      "Ġà®¨à®ķà®°à®®": 4158,
      "à¦Ĺà¦²": 4159,
      "ĠSec": 4160,
      "Ġà°¨à°¦": 4161,
      "Ġà¦Ĩà¦¸à¦¨": 4162,
      "ĠAir": 4163,
      "à¦Ńà¦¯": 4164,
      "Ġmi": 4165,
      "ĠBook": 4166,
      "Ġà¤ĩà¤¸à¤¸": 4167,
      "à¦ĸà¦¯": 4168,
      "iven": 4169,
      "à¦īà¦¡": 4170,
      "Ġgame": 4171,
      "Ġà¦ľà¦¨à¦ª": 4172,
      "Ġà²Ĵà²³": 4173,
      "ended": 4174,
      "Ġorder": 4175,
      "Ġ1975": 4176,
      "à¦ĺà¦°": 4177,
      "Ġjust": 4178,
      "Ġà¦īà§İà¦¸à¦¬": 4179,
      "Ġà²İà²°à²¡à²¨": 4180,
      "Ġstarted": 4181,
      "ĠWilliam": 4182,
      "à°ľà°¯à°¨à°Ĺà°°": 4183,
      "44": 4184,
      "55": 4185,
      "mar": 4186,
      "par": 4187,
      "site": 4188,
      "xt": 4189,
      "{\\": 4190,
      "ÑĢ": 4191,
      "ãĥ": 4192,
      "Ġà¤®à¤Ī": 4193,
      "à¤¹à¤²": 4194,
      "à¤¹à¤£": 4195,
      "ergy": 4196,
      "à²ķà²³": 4197,
      "Ġà¦ıà¦®": 4198,
      "atic": 4199,
      "à¤ľà¤µ": 4200,
      "à¦ľà¦¸": 4201,
      "Ġà¤²à¤ķà¤¡": 4202,
      "à®´à®ª": 4203,
      "Ġbel": 4204,
      "Ġà¤ıà¤¡": 4205,
      "Ġà¦¨à¦ķà¦¶": 4206,
      "Ġà¤Ĩà¤¬": 4207,
      "Ġà®īà®Łà®²": 4208,
      "ĠBy": 4209,
      "à¦ĸà¦²": 4210,
      "à¦ĵà¦²": 4211,
      "à²§à²µ": 4212,
      "ĠRoad": 4213,
      "Ġthird": 4214,
      "ĠFrench": 4215,
      "ĠInstitute": 4216,
      "ode": 4217,
      "ically": 4218,
      "Ġimmig": 4219,
      "radu": 4220,
      "ĠPhil": 4221,
      "Ġrepresent": 4222,
      "li": 4223,
      "oor": 4224,
      "well": 4225,
      "Ã¶": 4226,
      "à°¿)": 4227,
      "à°¨à°Ĺà°°": 4228,
      "à®µà®³": 4229,
      "Ġà¤®à¤²": 4230,
      "à¤µà¤ľà¤¨": 4231,
      "Ġà®ªà®°à®®": 4232,
      "orse": 4233,
      "Ġà°ªà°ķ": 4234,
      "arm": 4235,
      "Ġsim": 4236,
      "à¤¶à¤¤": 4237,
      "à¦ľà¦¯": 4238,
      "Ġfac": 4239,
      "Ġfather": 4240,
      "Ġcolle": 4241,
      "Ġà¤īà¤ł": 4242,
      "à¦ĩà¦ľ": 4243,
      "à®ªà®Łà®Ļ": 4244,
      "Ġà®Ĩà®³": 4245,
      "à¦§à¦°": 4246,
      "ĠAc": 4247,
      "Ġà®İà®°": 4248,
      "ĠMc": 4249,
      "omet": 4250,
      "Ġà®Ĵà®µ": 4251,
      "iron": 4252,
      "Ġeach": 4253,
      "Ġà¦¸à¦®à¦°": 4254,
      "ĠJapan": 4255,
      "Ġ37": 4256,
      "ried": 4257,
      "ĠUnion": 4258,
      "Ġà®Ĳà®¨": 4259,
      "Ġofficial": 4260,
      "Ġà¦Ĩà¦ĩà¦ı": 4261,
      "wards": 4262,
      "ĠKazakhstan": 4263,
      "ampionship": 4264,
      "cer": 4265,
      "rated": 4266,
      "à®Ĳ": 4267,
      "à°ĩ": 4268,
      "à±į)": 4269,
      "à®²à®ļ": 4270,
      "à®¯à®Ł": 4271,
      "Ġà¦¸à¦ķà¦²": 4272,
      "Ġà¦ķà¦ĸà¦¨": 4273,
      "Ġà®¤à®ķ": 4274,
      "Ġà°¸à°¨": 4275,
      "à¦ľà¦ķ": 4276,
      "rew": 4277,
      "à²®à²µ": 4278,
      "Ġà¦ħà¦ª": 4279,
      "Ġà°®à°²": 4280,
      "ĠSquadron": 4281,
      "Ġà¤Ĩà¤ķà¤°": 4282,
      "ĠTr": 4283,
      "à¦¥à¦¬": 4284,
      "Ġà®İà®®": 4285,
      "Ġà²¨à²ķ": 4286,
      "ada": 4287,
      "Ġla": 4288,
      "ĠGroup": 4289,
      "Ġ35": 4290,
      "Ġà°¶à°¤": 4291,
      "Ġvers": 4292,
      "Ġà°Ĵà°ķà°°": 4293,
      "à§Įà¦ģ": 4294,
      "Ġ1977": 4295,
      "Ġleg": 4296,
      "Ġext": 4297,
      "uck": 4298,
      "Ġworked": 4299,
      "Ġà²¸à²¦à²¸": 4300,
      "%)": 4301,
      "',": 4302,
      "}^{": 4303,
      "à¦¯à¦°": 4304,
      "à°¨à°¸": 4305,
      "à°²à°¬à°¡": 4306,
      "à¦¬à¦¯": 4307,
      "Ġà¤¹à¤²": 4308,
      "à²Ĺà²¨": 4309,
      "Ġthese": 4310,
      "à¥ĩà¤Ĥà¥¤": 4311,
      "Ġworld": 4312,
      "Ġsl": 4313,
      "Ġside": 4314,
      "à²Łà²²": 4315,
      "à²Łà²Ĺà²³": 4316,
      "Ġcame": 4317,
      "à¦Ĺà¦®": 4318,
      "ĠSer": 4319,
      "ĠCup": 4320,
      "Ġà²¹à²¸": 4321,
      "Ġà°Ĩà°²": 4322,
      "ĠHistory": 4323,
      "ĠHowever": 4324,
      "Ġlike": 4325,
      "ĠThere": 4326,
      "ĠDes": 4327,
      "Ġà¦ĩà¦īà¦¸": 4328,
      "Ġnorth": 4329,
      "raft": 4330,
      "ush": 4331,
      "ĠWest": 4332,
      "Ġà¥ª": 4333,
      "ument": 4334,
      "Ġ33": 4335,
      "ander": 4336,
      "ovi": 4337,
      "Ġà®ħà®±à®¨": 4338,
      "Ġ65": 4339,
      "Ġà§¨à§¦à§§à§Ń": 4340,
      "Ġincluded": 4341,
      "Ġbecause": 4342,
      "Ġformed": 4343,
      "ociation": 4344,
      "ĠBlack": 4345,
      "Ġmilitary": 4346,
      "Ġà¤ľà¤Ĺà¤¹": 4347,
      "76": 4348,
      "SI": 4349,
      "aul": 4350,
      "oe": 4351,
      "tal": 4352,
      "Ġ+": 4353,
      "à³§": 4354,
      "à¦°à¦«": 4355,
      "à®¤à®±": 4356,
      "à²¿)": 4357,
      "à®Łà®µà®°": 4358,
      "à¥Ģà¥°": 4359,
      "à°°à°µà°°": 4360,
      "à²°à²µà²°": 4361,
      "à°Ĥ)": 4362,
      "à²²à²¦à²²": 4363,
      "à¦¬à¦¹": 4364,
      "Ġà®ªà®Łà®¤": 4365,
      "à°µà°µ": 4366,
      "Ġà¤¨à¤ķ": 4367,
      "à°ªà°ķ": 4368,
      "Ġà°¸à°¬": 4369,
      "Ġà¤°à¤ļ": 4370,
      "ico": 4371,
      "Ġbusiness": 4372,
      "Ġà®Ĩà®¤à®°": 4373,
      "Ġà²ħà²Ĺà²¤": 4374,
      "Ġà¤¤à¤®": 4375,
      "Ġà°Ĺà°°": 4376,
      "ivil": 4377,
      "Ġà²Ĺà²£": 4378,
      "ĠStud": 4379,
      "ize": 4380,
      "à°·à°¨à°²": 4381,
      "inda": 4382,
      "Ġà®Ĳà®ķ": 4383,
      "Ġà®Ĳà®¤à®°": 4384,
      "ĠOne": 4385,
      "}}:": 4386,
      "Ġà®Īà®°": 4387,
      "à°İà°¸": 4388,
      "Ġà²§à²°": 4389,
      "ondon": 4390,
      "Ġà¤®à¤¦à¤¦": 4391,
      "ospital": 4392,
      "ĠBritish": 4393,
      "Ġsuccess": 4394,
      "Ġà¦Ĩà¦ĩà¦ıà¦¸à¦¬": 4395,
      ".)": 4396,
      "80": 4397,
      "96": 4398,
      "au": 4399,
      "ael": 4400,
      "ble": 4401,
      "vers": 4402,
      "à°¢": 4403,
      "à®°à®¸": 4404,
      "à®ªà®ª": 4405,
      "à²²à²Ń": 4406,
      "Ġage": 4407,
      "ini": 4408,
      "à²³à²ķ": 4409,
      "Ġà¤ħà¤¡": 4410,
      "esh": 4411,
      "Ġà¤¨à¤®": 4412,
      "Ġsold": 4413,
      "Ġbased": 4414,
      "Ġà¤Ĩà¤®à¤¤": 4415,
      "à¤ıà¤Ĺ": 4416,
      "Ġà²¨à²¦": 4417,
      "à²·à²°": 4418,
      "Ġà²°à²ļà²¨": 4419,
      "igor": 4420,
      "Ġref": 4421,
      "ries": 4422,
      "Ġà²Ĵà²Ł": 4423,
      "Ġvill": 4424,
      "Ġà®Ĭà®Ł": 4425,
      "Ġ1989": 4426,
      "ruct": 4427,
      "Ġà®¨à®ķà®°à®¤": 4428,
      "Ġmatch": 4429,
      "Ġbuilding": 4430,
      "Ġà²ļà²²à²¨à²ļ": 4431,
      "31": 4432,
      "71": 4433,
      "BC": 4434,
      "cos": 4435,
      "ling": 4436,
      "ÑĤ": 4437,
      "ĪĴ": 4438,
      "à®ī": 4439,
      "Ġà¦ł": 4440,
      "à¤°à¤ļ": 4441,
      "à®¿-": 4442,
      "à®°à®µà®°": 4443,
      "Ġtrad": 4444,
      "Ġà¤¹à¤ľ": 4445,
      "à¥Ī;": 4446,
      "onst": 4447,
      "Ġà¦¸à¦Ń": 4448,
      "Ġà¦ªà¦ķ": 4449,
      "Ġà®¤à®µ": 4450,
      "Ġà®ħà®Łà®Ļ": 4451,
      "à¤ľà¤²": 4452,
      "à±Ģà°Ĥ": 4453,
      "à¦ªà¦Ł": 4454,
      "alf": 4455,
      "Ġcand": 4456,
      "Ġà²¨à²µ": 4457,
      "à²¹à²¤": 4458,
      "Ġà¦īà¦Ńà¦¯": 4459,
      "urs": 4460,
      "Ġled": 4461,
      "Ġlist": 4462,
      "Ġà²Ĵà²¡": 4463,
      "Ġà²ļà²°": 4464,
      "Ġvict": 4465,
      "ours": 4466,
      "à±Įà°Ĥ": 4467,
      "Ġright": 4468,
      "Ġà¦ıà¦°à¦ªà¦°": 4469,
      "Ġà¦ħà¦¬à¦¶": 4470,
      "Ġà®¨à®Łà®ķ": 4471,
      "à³¦à³¦": 4472,
      "Ġà°ıà°Ł": 4473,
      "Ġà®Ĳà®°": 4474,
      "Ġworks": 4475,
      "Ġadv": 4476,
      "Ġindust": 4477,
      "ociety": 4478,
      "Ġamong": 4479,
      "Ġfeat": 4480,
      "Ġdevelopment": 4481,
      "Ġmonth": 4482,
      "Ġincre": 4483,
      "34": 4484,
      "59": 4485,
      "ne": 4486,
      "à¥¯à¥": 4487,
      "à¦¨à¦®": 4488,
      "à°°à°Ĺ": 4489,
      "à°°à°¬": 4490,
      "à±ģ:": 4491,
      "Ġà¤¸à¤«": 4492,
      "à²²à²¯": 4493,
      "à²Ĺà²ķ": 4494,
      "Ġà¦ķà¦ķ": 4495,
      "Ġà¦¬à¦ķ": 4496,
      "à²¸à²Ĺ": 4497,
      "à¤Ĺà¤ľ": 4498,
      "à§ĭ,": 4499,
      "Ġà¤¨à¤Ī": 4500,
      "Ġwater": 4501,
      "Ġinternational": 4502,
      "ĠSch": 4503,
      "à¦£à¦¤": 4504,
      "à¦¥à¦ķ": 4505,
      "ently": 4506,
      "Ġà¦Ĺà¦Ń": 4507,
      "à°§à°¨": 4508,
      "ura": 4509,
      "Ġlife": 4510,
      "ĠLondon": 4511,
      "ayat": 4512,
      "idd": 4513,
      "Ġep": 4514,
      "ĠFrom": 4515,
      "à¦ıà¦®": 4516,
      "ached": 4517,
      "ove": 4518,
      "à§İà¦ķ": 4519,
      "Ġroad": 4520,
      "Ġdesign": 4521,
      "à°¸à°¨à°¸à°Ń": 4522,
      "CA": 4523,
      "ĠÎ": 4524,
      "Ġvery": 4525,
      "à²Ī": 4526,
      "à³¬": 4527,
      "à²°à²ª": 4528,
      "à®®à®ª": 4529,
      "à²¦à²µà²°": 4530,
      "inz": 4531,
      "à°¤à°Ĺ": 4532,
      "à¥ģ,": 4533,
      "anish": 4534,
      "Ġà¤ħà¤¹": 4535,
      "Ġà¤ħà¤ľ": 4536,
      "Ġà¤ħà¤µà¤¸": 4537,
      "Ġà°ªà°¤": 4538,
      "à¤§à¤ķ": 4539,
      "Ġà¦ħà¦ªà¦°": 4540,
      "Ġbody": 4541,
      "Ġà¦¤à¦¥": 4542,
      "à¦¡à¦¨": 4543,
      "let": 4544,
      "Ġmen": 4545,
      "ĠMos": 4546,
      "ĠPres": 4547,
      "adio": 4548,
      "Ġà¤ķà¤°à¤£": 4549,
      "Ġà¦ļà¦Ł": 4550,
      "Ġà²¤à²²": 4551,
      "ĠDev": 4552,
      "ĠLat": 4553,
      "Ġà§¨à§«": 4554,
      "Ġà²Īà²Ĺ": 4555,
      "akes": 4556,
      "ially": 4557,
      "ploy": 4558,
      "forman": 4559,
      "à®İà®¸": 4560,
      "Ġeduc": 4561,
      "ĠQue": 4562,
      "56": 4563,
      "view": 4564,
      "ÙĨ": 4565,
      "à¤¯à¤£": 4566,
      "à¦ķà¦¬": 4567,
      "à¦²à¦®": 4568,
      "Ġtw": 4569,
      "Ġair": 4570,
      "Ġà®ªà®ŀ": 4571,
      "à°¯à°ķà°°": 4572,
      "ony": 4573,
      "à²ķà²¦": 4574,
      "à¤Łà¤µ": 4575,
      "org": 4576,
      "à¤Ĺà¤£à¤¨": 4577,
      "à±ĩ.": 4578,
      "Ġà®ħà®¯": 4579,
      "atch": 4580,
      "à¦ªà¦¶": 4581,
      "à¦ľà¦®": 4582,
      "Ġfund": 4583,
      "Ġà®¨à®µà®®": 4584,
      "ĠSe": 4585,
      "Ġà°¨à°²": 4586,
      "Ġà°ħà°µà°¸à°°": 4587,
      "à¦Ľà¦¨": 4588,
      "ĠCamb": 4589,
      "à¦¥à¦°": 4590,
      "à¤ıà¤«": 4591,
      "Ġmunicip": 4592,
      "Ġdied": 4593,
      "à®µà®°à®Ļ": 4594,
      "Ġà°°à°¥": 4595,
      "à²¬à²¨": 4596,
      "ĠNor": 4597,
      "Ġà²İà²¦": 4598,
      "Ġà°ĩà°³": 4599,
      "though": 4600,
      "Ġà®Ĭà®°à®ķ": 4601,
      "Ġà¦Ĩà¦°à¦¬": 4602,
      "à¤īà¤¦": 4603,
      "Ġ1982": 4604,
      "Ġà¦ĩà¦¨à¦¸": 4605,
      "Ġà¦Ĩà¦Ĺà¦¸": 4606,
      "Ġservices": 4607,
      "ought": 4608,
      "ĠCentral": 4609,
      "Ġspecial": 4610,
      "Ġmoved": 4611,
      "useum": 4612,
      "inning": 4613,
      "Ġreported": 4614,
      "06": 4615,
      "36": 4616,
      "54": 4617,
      "77": 4618,
      "han": 4619,
      "iber": 4620,
      "ms": 4621,
      "ti": 4622,
      "Ã¼": 4623,
      "à¤¤à¤ª": 4624,
      "à¦¨à¦¶": 4625,
      "à°°à°ļ": 4626,
      "à¦¯à¦¸": 4627,
      "Ġà¤¸à¤ľ": 4628,
      "à²²à²Ĺà²³": 4629,
      "Ġauthor": 4630,
      "à¤ªà¤¶": 4631,
      "Ġsign": 4632,
      "isation": 4633,
      "iter": 4634,
      "à¦ľà¦¬": 4635,
      "Ġà®¨à®©": 4636,
      "Ġà®¨à®µ": 4637,
      "à¤¥à¤°": 4638,
      "ĠCab": 4639,
      "Ġtoget": 4640,
      "ĠMex": 4641,
      "Ġà°ļà°¦": 4642,
      "ĠPer": 4643,
      "ĠNe": 4644,
      "utive": 4645,
      "Ġ300": 4646,
      "à¥Ģà¤Ĥ,": 4647,
      "Ġhelp": 4648,
      "app": 4649,
      "ĠVir": 4650,
      "Ġà¤ķà¤¹à¤²": 4651,
      "Ġà®ıà®ª": 4652,
      "ishin": 4653,
      "Ġ1978": 4654,
      "ounc": 4655,
      "Ġà®ªà®°à®ª": 4656,
      "Ġarch": 4657,
      "angu": 4658,
      "Ġ1950": 4659,
      "Ġrail": 4660,
      "ournal": 4661,
      "Ġtitle": 4662,
      "Ġtogether": 4663,
      "ke": 4664,
      "lin": 4665,
      "ta": 4666,
      "work": 4667,
      "yd": 4668,
      "Ø±": 4669,
      "Ġà¤ķà¤¸": 4670,
      "à²¦à²³": 4671,
      "à¤¸à¤Ĺà¤¢": 4672,
      "Ġà¤¹à¤¤": 4673,
      "Ġap": 4674,
      "à°¦à°®": 4675,
      "Ġà¤ľà¤¯": 4676,
      "Ġà¤ħà¤ªà¤°": 4677,
      "à¯ĩ,": 4678,
      "alth": 4679,
      "à¦Ĺà¦¨": 4680,
      "à¦Ĺà¦£": 4681,
      "Ġà¦ķà¦°à¦¬": 4682,
      "Ġà¤ıà¤¶": 4683,
      "Ġà°®à°¦": 4684,
      "ĠSan": 4685,
      "ĠSup": 4686,
      "Ġà¤¤à¤²": 4687,
      "à¦Ńà¦¬": 4688,
      "Ġà²¨à²¨": 4689,
      "olje": 4690,
      "à¦ĸà¦ķ": 4691,
      "ĠGovernment": 4692,
      "ides": 4693,
      "ĠJack": 4694,
      "Ġ32": 4695,
      "Ġà²Ĵà²ª": 4696,
      "Ġà²Ĵà²¬": 4697,
      "Ġ1979": 4698,
      "ĠHeinz": 4699,
      "ords": 4700,
      "Ġ1983": 4701,
      "Ġ1985": 4702,
      "Ġà§¨à§¦à§§à§®": 4703,
      "ief": 4704,
      "à®°à®ªà®²à®®": 4705,
      "Ġà®īà®£à®°": 4706,
      "Ġà®ªà®´à®Ļ": 4707,
      "ĠGrigor": 4708,
      "ĠAngel": 4709,
      "Ð¾Ð": 4710,
      "ĠPrij": 4711,
      "Ġengine": 4712,
      "37": 4713,
      "48": 4714,
      "EC": 4715,
      "IS": 4716,
      "ray": 4717,
      "vious": 4718,
      "àµ": 4719,
      "à°ŀ": 4720,
      "à³Ń": 4721,
      "à¦¾)": 4722,
      "à®¤à®ļ": 4723,
      "Ġà¤ķà¤¶": 4724,
      "à¤¨à¤¦": 4725,
      "à¤¨à¤¸à¤¨": 4726,
      "à±ģ-": 4727,
      "à¦ķà¦ķ": 4728,
      "à¦²à¦Ń": 4729,
      "à®µà®Ļ": 4730,
      "Ġaway": 4731,
      "à¥Ī)": 4732,
      "à§ģ,": 4733,
      "Ġà®ķà®³": 4734,
      "Ġà¦ķà¦²à¦ķ": 4735,
      "Ġà®ĩà®±à®¨": 4736,
      "Ġson": 4737,
      "à¦¶à¦²": 4738,
      "à¤£à¤ķ": 4739,
      "Ġcover": 4740,
      "read": 4741,
      "à²®à²¤": 4742,
      "à¤¥à¤ķ": 4743,
      "Ġpri": 4744,
      "Ġposs": 4745,
      "à¦¼à§ĩà¥¤": 4746,
      "Ġà§¯à§": 4747,
      "à²ªà²Ĺà²³": 4748,
      "Ġà²ªà²¦à²°": 4749,
      "Ġmur": 4750,
      "omin": 4751,
      "Ġà¤ļà¤°à¤£": 4752,
      "Ġà¦īà¦ĩà¦²": 4753,
      "ĠList": 4754,
      "Ġà¤«à¤²": 4755,
      "ĠGram": 4756,
      "Ġgl": 4757,
      "anding": 4758,
      "Ġà®ĩà®¤à®±": 4759,
      "à²Ńà²¦à²²": 4760,
      "ĠUk": 4761,
      "Ġvol": 4762,
      "ateg": 4763,
      "Ġà¤ĺà¤Łà¤¨": 4764,
      "Ġà¤īà¤ªà¤ķà¤°à¤£": 4765,
      "à¤¶à¤¨à¤²": 4766,
      "epolje": 4767,
      "ishing": 4768,
      "Ġ1973": 4769,
      "Ġà¥§à¥«": 4770,
      "Ġà°ľà°¨à°¨": 4771,
      "Ġà¦īà§İà¦¸": 4772,
      "Ġground": 4773,
      "Ġà§¨à§¦à§¨à§§": 4774,
      "Ġà²¬à²¹à²³": 4775,
      "ĠCenter": 4776,
      "ĠItaly": 4777,
      "ĠQu": 4778,
      "à¤¯à¤µà¤¹": 4779,
      "Ġà¦Ĺà¦łà¦¨": 4780,
      "Ġcountry": 4781,
      "Ġwebsite": 4782,
      "Ġcareer": 4783,
      "ĠVasai": 4784,
      "ĠDistrict": 4785,
      "ĠGrigorishin": 4786,
      "ĠPrijepolje": 4787,
      "500": 4788,
      "day": 4789,
      "iy": 4790,
      "ler": 4791,
      "of": 4792,
      "à¨": 4793,
      "à²Ŀ": 4794,
      "à¤¾\"": 4795,
      "à§ĩ)": 4796,
      "à®¤à®Ł": 4797,
      "Ġà¤ķà¤ł": 4798,
      "à°°à°³": 4799,
      "à¤¯à¤Łà¤¨": 4800,
      "à¤²à¤®": 4801,
      "Ġà¤¸à¤ª": 4802,
      "à¤¹à¤ķ": 4803,
      "à¦Łà¦ĵà¦¯": 4804,
      "edia": 4805,
      "ison": 4806,
      "itect": 4807,
      "à¤¶à¤²": 4808,
      "Ġfem": 4809,
      "Ġfriend": 4810,
      "Ġinit": 4811,
      "Ġcer": 4812,
      "à®´à®°": 4813,
      "Ġpat": 4814,
      "Ġà®Ĩà®¨": 4815,
      "Ġà§¯": 4816,
      "row": 4817,
      "Ġà°¨à°µ": 4818,
      "à¦£à¦¨": 4819,
      "Ġdue": 4820,
      "Ġhistory": 4821,
      "ĠMich": 4822,
      "Ġà°Ĩà°Ĺ": 4823,
      "ĠPre": 4824,
      "à°·à°§": 4825,
      "chayat": 4826,
      "Ġà°¤à°²": 4827,
      "Ġline": 4828,
      "Ġlarg": 4829,
      "ĠDo": 4830,
      "ĠLaw": 4831,
      "Ġnon": 4832,
      "Ġthose": 4833,
      "used": 4834,
      "ĠWil": 4835,
      "istan": 4836,
      "uman": 4837,
      "Ġà²īà²ķ": 4838,
      "rial": 4839,
      "Ġà°İà°¤": 4840,
      "ains": 4841,
      "anta": 4842,
      "Ġà²²à²ķ": 4843,
      "Ġà¤²à¤Ĺà¤¤": 4844,
      "Ġà§¨à§¦à§§à§§": 4845,
      "Ġà¤ľà¤¨à¤Ĺà¤£à¤¨": 4846,
      "à°İà°®": 4847,
      "iction": 4848,
      "Ġacross": 4849,
      "Ġcurrent": 4850,
      "62": 4851,
      "frac": 4852,
      "nov": 4853,
      "uff": 4854,
      "ves": 4855,
      "à¦¢": 4856,
      "à§·": 4857,
      "à³ª": 4858,
      "à¤°à¤ĸ": 4859,
      "Ġà¤ķà¤Ł": 4860,
      "à®¾.": 4861,
      "à²¤à²Ĺ": 4862,
      "à²²à²¯à²¦": 4863,
      "à¤®à¤¹": 4864,
      "à¦¬à¦¶": 4865,
      "à²µà²¦à²²": 4866,
      "Ġ(\"": 4867,
      "à¦¦à¦Ł": 4868,
      "à®£à®Ļ": 4869,
      "arr": 4870,
      "arch": 4871,
      "arge": 4872,
      "Ġcult": 4873,
      "Ġbr": 4874,
      "Ġà²ķà²¥": 4875,
      "Ġà¦Ĩà¦ļ": 4876,
      "ĠAct": 4877,
      "Ġà®İà®¸": 4878,
      "ĠMuseum": 4879,
      "ĠBro": 4880,
      "à²ľà²µ": 4881,
      "Ġà°ľà°Ł": 4882,
      "Ġà¦ļà¦¤": 4883,
      "ĠRev": 4884,
      "ĠRiver": 4885,
      "à¤¤à¤°à¤£": 4886,
      "Ġ38": 4887,
      "Ġsele": 4888,
      "aint": 4889,
      "à¤Ľà¤²": 4890,
      "Ġ70": 4891,
      "Ġà®ıà®´": 4892,
      "Ġà¤ĩà¤¨à¤®": 4893,
      "Ġ1986": 4894,
      "à²°à²£à²µ": 4895,
      "Ġrole": 4896,
      "Ġà¤ªà¤¦à¤ķ": 4897,
      "Ġperiod": 4898,
      "Ġpolice": 4899,
      "Ø§ÙĦ": 4900,
      "Ġpresent": 4901,
      "Ġpresident": 4902,
      "Ġdefe": 4903,
      "Ġpolitical": 4904,
      "ĠAustralia": 4905,
      "Ġà°Ķà°·à°§": 4906,
      "Ġcandid": 4907,
      "ek": 4908,
      "eer": 4909,
      "hold": 4910,
      "ming": 4911,
      "net": 4912,
      "van": 4913,
      "à®ķà®±": 4914,
      "à®Łà®±": 4915,
      "à¦¨à¦¦": 4916,
      "à²°à²§": 4917,
      "à¦¯à¦ķà¦°": 4918,
      "à²¦à²¦": 4919,
      "à¦ķà¦®": 4920,
      "Ġav": 4921,
      "à¦®à¦Ł": 4922,
      "à¦®à¦¶": 4923,
      "à®ļà®Ļ": 4924,
      "à¦¦à¦¶": 4925,
      "Ġà®µà®Ļ": 4926,
      "à°¸à°²": 4927,
      "Ġopp": 4928,
      "Ġà¤Ńà¤ķ": 4929,
      "ĠAp": 4930,
      "ĠCap": 4931,
      "à¦Ńà¦¬à¦¤": 4932,
      "Ġà°Ĺà°¦": 4933,
      "à²£à²Ĺ": 4934,
      "Ġhit": 4935,
      "à°·à°²": 4936,
      "Ġà²Ĩà²¤": 4937,
      "à³įâĢĮ,": 4938,
      "ĠDep": 4939,
      "Ġà®Ĵà®´": 4940,
      "raw": 4941,
      "Ġà°ĩà°ª": 4942,
      "à¤ĩà¤®": 4943,
      "Ġà¥¬": 4944,
      "ĠEar": 4945,
      "Ġà¦¡à¦²": 4946,
      "Ġconstru": 4947,
      "quin": 4948,
      "season": 4949,
      "Ġà²ĩà²¦à²ķ": 4950,
      "Ġshot": 4951,
      "à®Łà®ķà®Ļ": 4952,
      "Ġclaim": 4953,
      "Ġ1958": 4954,
      "achine": 4955,
      "Ġ1930": 4956,
      "Ġà§¨à§¦à§¨à§¨": 4957,
      "Ġà¤Ĩà¤¸à¤ª": 4958,
      "Ġdirector": 4959,
      "ography": 4960,
      "Ġà§§à§¯à§¦à§": 4961,
      "Ġcharacter": 4962,
      "ĠPanchayat": 4963,
      "ĠAcadem": 4964,
      "Ġvillage": 4965,
      "ĠCambridge": 4966,
      "\")": 4967,
      "book": 4968,
      "go": 4969,
      "iol": 4970,
      "}\\": 4971,
      "à§ĩ;": 4972,
      "à¦¿'": 4973,
      "à¤ķà¤Ń": 4974,
      "à¯Ī-": 4975,
      "help": 4976,
      "à¤®à¤ļ": 4977,
      "inary": 4978,
      "à¦¸à¦¹": 4979,
      "Ġà®®à®°à®ª": 4980,
      "à°¡à°¯": 4981,
      "à²¸à²¬": 4982,
      "Ġà¤¨à¤ı": 4983,
      "Ġset": 4984,
      "à¦ľà¦°": 4985,
      "Ġà²¸à²°à²ķ": 4986,
      "à¤ļà¤ķ": 4987,
      "à¦Ĺà¦ł": 4988,
      "Ġà¤ıà¤«": 4989,
      "Ġtotal": 4990,
      "Ġà²¹à²³": 4991,
      "Ġmother": 4992,
      "Ġdoc": 4993,
      "Ġà®İà®ª": 4994,
      "Ġà°Ĩà°¡à°µ": 4995,
      "ĠBen": 4996,
      "urity": 4997,
      "à²§à²¤": 4998,
      "ĠRay": 4999,
      "Ġà²¤à²¡": 5000,
      "irl": 5001,
      "ĠFed": 5002,
      "Ġà°ĩà°µ": 5003,
      "Ġà¦Ľà¦¨": 5004,
      "ache": 5005,
      "ĠInter": 5006,
      "Ġwhat": 5007,
      "Ġvar": 5008,
      "Ġvide": 5009,
      "Ġ48": 5010,
      "ards": 5011,
      "ĠChurch": 5012,
      "Ġexper": 5013,
      "merc": 5014,
      "Ġshort": 5015,
      "reek": 5016,
      "Ġà²ľà²¨à²ª": 5017,
      "Ġà²¬à²³à²¸à²²": 5018,
      "Ġinclude": 5019,
      "Ġindepend": 5020,
      "stitut": 5021,
      "à²İà²¸": 5022,
      "Ġà¤Ĩà¤Īà¤¬": 5023,
      "Ġinvol": 5024,
      "à¥¦à¥¦à¥¦": 5025,
      "Ġà°°à°ļà°¨": 5026,
      "Ġdescrib": 5027,
      "32": 5028,
      "61": 5029,
      "cent": 5030,
      "Ã£": 5031,
      "ÙĪ": 5032,
      "à¤±": 5033,
      "à³®": 5034,
      "à®Łà®³": 5035,
      "à²°à²Ĺà²³à²²": 5036,
      "à³ģ)": 5037,
      "à°¨à°¨": 5038,
      "à¤¯à¤§": 5039,
      "à°²à°Ĺ": 5040,
      "Ġà¤¸à¤µ": 5041,
      "Ġtem": 5042,
      "Ġtake": 5043,
      "Ġà¤®à¤Ĺ": 5044,
      "à°¯à°£": 5045,
      "Ġà®¤à®³": 5046,
      "à²¸à²µ": 5047,
      "Ġsquadron": 5048,
      "Ġfew": 5049,
      "Ġà²¸à²£": 5050,
      "Ġinst": 5051,
      "Ġcoll": 5052,
      "Ġbomb": 5053,
      "Ġpost": 5054,
      "Ġà°®à°Ĺà°µ": 5055,
      "ĠSam": 5056,
      "ĠSim": 5057,
      "Ġà¤Ĩà¤ļ": 5058,
      "Ġà¦Ĩà¦¹": 5059,
      "ĠAle": 5060,
      "Ġtop": 5061,
      "Ġà®īà®ļ": 5062,
      "Ġmake": 5063,
      "ĠMu": 5064,
      "Ġà°Ĩà°Łà°²": 5065,
      "ament": 5066,
      "ĠPark": 5067,
      "ivid": 5068,
      "Ġlarge": 5069,
      "ĠRail": 5070,
      "Ġrequ": 5071,
      "Ġnext": 5072,
      "usp": 5073,
      "ĠWork": 5074,
      "Ġà²īà²°": 5075,
      "Ġà²īà²·": 5076,
      "à¦°à¦ķà¦²": 5077,
      "à®¯à®°à®ļ": 5078,
      "Ġà²Īà²¸": 5079,
      "ained": 5080,
      "aken": 5081,
      "ĠChrist": 5082,
      "Ġà®ĩà®¯à®Ļ": 5083,
      "Ġà§¨à§¦à§§à§©": 5084,
      "Ġà§¨à§¦à§§à§¬": 5085,
      "Ġà¦Ĩà¦¬à¦¦": 5086,
      "Ġperforman": 5087,
      "Ġcoach": 5088,
      "Ġregion": 5089,
      "Ġpriv": 5090,
      "Ġstudents": 5091,
      "Ġwritten": 5092,
      "ĠAfrican": 5093,
      "Ġreturned": 5094,
      "Ġproduction": 5095,
      "ĠRussian": 5096,
      "Ġchildren": 5097,
      "ouncil": 5098,
      "33": 5099,
      "57": 5100,
      "CO": 5101,
      "rd": 5102,
      "}=": 5103,
      "à®ķà®Łà®²": 5104,
      "à²°à²·": 5105,
      "à®©à®©": 5106,
      "à®©à®£": 5107,
      "à¤®à¤ª": 5108,
      "à¦¼à§į": 5109,
      "à²Ĺà²µà²¨": 5110,
      "à°ķà°ª": 5111,
      "à®ļà®ķà®°": 5112,
      "à¤Łà¤µà¤°": 5113,
      "Ġà¦ıà¦¦": 5114,
      "Ġà¤ħà¤Ĺà¤°": 5115,
      "Ġwar": 5116,
      "Ġwomen": 5117,
      "Ġsqu": 5118,
      "alys": 5119,
      "itte": 5120,
      "reg": 5121,
      "à¦ĩà¦Ńà¦ķ": 5122,
      "ĠSw": 5123,
      "ĠServ": 5124,
      "à±Ĥà°Ĥ": 5125,
      "à²£à²¤": 5126,
      "omot": 5127,
      "ĠBra": 5128,
      "ĠPet": 5129,
      "à°·à°°": 5130,
      "Ġà¦īà¦¡": 5131,
      "à°¹à°¨": 5132,
      "ĠDel": 5133,
      "Ġgradu": 5134,
      "ĠWestern": 5135,
      "Ġà§¨à§§": 5136,
      "à®°à®®à®£": 5137,
      "à¦ľà¦¨à¦ķ": 5138,
      "ĠUK": 5139,
      "Ġà²Ĵà²¦à²Ĺ": 5140,
      "Ġwhite": 5141,
      "abor": 5142,
      "orts": 5143,
      "Ġà®¨à®Łà®µà®Ł": 5144,
      "ĠChampionship": 5145,
      "Ġ1966": 5146,
      "à°ĺà°²": 5147,
      "Ġpolic": 5148,
      "Ġà°Ĳà°¦": 5149,
      "Ġcreated": 5150,
      "Ġjoined": 5151,
      "à°Łà°£à°®": 5152,
      "ructure": 5153,
      "quinox": 5154,
      "72": 5155,
      "74": 5156,
      "ãģ": 5157,
      "Ġ;": 5158,
      "Ġel": 5159,
      "à¯į),": 5160,
      "à¤¾;": 5161,
      "à¤°à¤ªà¤¤": 5162,
      "à¦°à¦ļà¦²": 5163,
      "Ġà¤ķà¤¡": 5164,
      "à²°à²¦à²°": 5165,
      "à®®à®£à®®": 5166,
      "à°¨à°¡": 5167,
      "à¤¸à¤¦": 5168,
      "Ġà®®à®¯": 5169,
      "Ġà¦¬à¦ĩ": 5170,
      "oring": 5171,
      "Ġà¦ıà¦¡": 5172,
      "à¤Ĺà¤£": 5173,
      "à²³à²Ĺà²³": 5174,
      "ene": 5175,
      "Ġwee": 5176,
      "à¦ªà¦²": 5177,
      "isc": 5178,
      "à¦¶à¦°": 5179,
      "Ġà²®à²Ĺ": 5180,
      "Ġfind": 5181,
      "Ġcrit": 5182,
      "Ġà¦ħà¦¥à¦¬": 5183,
      "Ġpower": 5184,
      "Ġà§¦": 5185,
      "ĠSociety": 5186,
      "Ġà¤Ńà¤µ": 5187,
      "roop": 5188,
      "ĠCong": 5189,
      "ĠTrans": 5190,
      "lev": 5191,
      "ĠMor": 5192,
      "à²·à²¦": 5193,
      "olution": 5194,
      "à²¹à²°": 5195,
      "Ġà¦Ĺà¦°": 5196,
      "Ġà²Ĩà²¹": 5197,
      "urg": 5198,
      "ĠRos": 5199,
      "ĠRoman": 5200,
      "ĠDivision": 5201,
      "Ġrepl": 5202,
      "Ġrefer": 5203,
      "Ġà²İà²¤": 5204,
      "Ġà®ĩà®¤à®´": 5205,
      "Ġstat": 5206,
      "Ġstill": 5207,
      "Ġà²Ĵà²ķ": 5208,
      "Ġà°¹à°°": 5209,
      "Ġ45": 5210,
      "ĠVal": 5211,
      "Ġà®¨à®Łà®¨": 5212,
      "Ġ1974": 5213,
      "Ġ1984": 5214,
      "Ġà§¨à§¦à§§à§¦": 5215,
      "Ġyoung": 5216,
      "Ġà°¤à°°à°ª": 5217,
      "Ġ1969": 5218,
      "Ġà§¨à§¦à§¦à§¬": 5219,
      "Ġbecome": 5220,
      "Ġprevious": 5221,
      "ĠEngland": 5222,
      "minist": 5223,
      "Ġcompetition": 5224,
      "à¦ıà¦ĩà¦ļ": 5225,
      "Ã£o": 5226,
      "--": 5227,
      "69": 5228,
      "Ch": 5229,
      "DC": 5230,
      "DP": 5231,
      "Ðº": 5232,
      "à³©": 5233,
      "Ġà¤ķà¤£": 5234,
      "à¥Ģ'": 5235,
      "à®®à®±": 5236,
      "à®©à®ª": 5237,
      "à²¨à²¤": 5238,
      "à²¤à²¦à²²": 5239,
      "Ġturn": 5240,
      "Ġà¤¹à¤Ł": 5241,
      "ona": 5242,
      "à°¦à°¤": 5243,
      "ena": 5244,
      "ators": 5245,
      "ising": 5246,
      "Ġà¤¦à¤¶": 5247,
      "Ġfield": 5248,
      "à²®à²Ł": 5249,
      "à¤¼à¥ģ": 5250,
      "Ġà¤Ĩà¤ł": 5251,
      "Ġà¤ĩà¤¤à¤¨": 5252,
      "ĠCro": 5253,
      "ĠCam": 5254,
      "Ġmuch": 5255,
      "Ġdata": 5256,
      "Ġhost": 5257,
      "ĠMart": 5258,
      "à²¹à²°à²£": 5259,
      "iment": 5260,
      "Ġà²İà²¸": 5261,
      "à¤ĩà¤¯": 5262,
      "Ġà¦²à¦ľ": 5263,
      "Ġbeg": 5264,
      "aced": 5265,
      "Ġconn": 5266,
      "Ġà®ħà®¤à®±": 5267,
      "à²¤à²°à²¦": 5268,
      "ĠVent": 5269,
      "ources": 5270,
      "Ġà¤¤à¤ķà¤¨": 5271,
      "Ġà²²à²Ń": 5272,
      "Ġà²¸à²®à²¯à²¦à²²": 5273,
      "Ġà°ªà°°à°ªà°¤": 5274,
      "Ġà¤¬à¤¹à¤¨": 5275,
      "outhern": 5276,
      "ĠThom": 5277,
      "Ġcommunity": 5278,
      "Ġcoast": 5279,
      "Ġà§©à§¦": 5280,
      "à¤ĩà¤¨à¤²": 5281,
      "ĠSingap": 5282,
      "cosystem": 5283,
      ")-": 5284,
      "ka": 5285,
      "self": 5286,
      "yl": 5287,
      "à¯ģ;": 5288,
      "à§ĩ:": 5289,
      "à®²à®©": 5290,
      "à¤¸à¤ļ": 5291,
      "Ġà¤ªà¤µ": 5292,
      "à°¦à°Ĺ": 5293,
      "à°¡à°®": 5294,
      "Ġà¦ªà¦ŀ": 5295,
      "à°®à°¦": 5296,
      "à²¸à²¸": 5297,
      "Ġà¤µà¤ķ": 5298,
      "Ġà®ħà®ľ": 5299,
      "ared": 5300,
      "Ġà°ķà°ª": 5301,
      "Ġsk": 5302,
      "Ġsouth": 5303,
      "à²¡à²Ĺ": 5304,
      "à¤¡à¤µ": 5305,
      "Ġcit": 5306,
      "à²®à²£": 5307,
      "ician": 5308,
      "icles": 5309,
      "Ġposition": 5310,
      "Ġà¤ıà¤ļ": 5311,
      "à²ªà²¸": 5312,
      "à¦¹à¦ķ": 5313,
      "Ġà¤Ĩà¤¯à¤°": 5314,
      "à²£à²Ĺà²³": 5315,
      "Ġà°ļà°ķ": 5316,
      "Ġà°ļà°²à°¨": 5317,
      "ster": 5318,
      "ĠBel": 5319,
      "Ġlo": 5320,
      "Ġlate": 5321,
      "Ġà§§à§§": 5322,
      "Ġreal": 5323,
      "Ġà®ĩà®°à®Ł": 5324,
      "Ġà°ĩà°¤à°¨": 5325,
      "à®¯à®²à®²": 5326,
      "Ġà²ľà²°": 5327,
      "Ġà°Ńà°µà°¨": 5328,
      "à¦ıà¦²": 5329,
      "Ġ58": 5330,
      "Ġ500": 5331,
      "Ġà°İà°¸": 5332,
      "à¤¯à¤ķà¤¤": 5333,
      "Ġran": 5334,
      "Ġà²ħà²µà²°à²¨": 5335,
      "à°ĸà°°": 5336,
      "Ġ1976": 5337,
      "Ġà®ľà®©": 5338,
      "à¤°à¤¹à¤£": 5339,
      "à®ķà®´à®ķà®®": 5340,
      "à¤ħà¤°": 5341,
      "Ġà¤ħà¤°à¤¬": 5342,
      "Ġ1952": 5343,
      "Ġà²ľà²¨à²¸": 5344,
      "ibr": 5345,
      "Ġscored": 5346,
      "Ġà¤Ĳà¤¤": 5347,
      "Ġà¤Ĭà¤°": 5348,
      "Ġà§¨à§¦à§¦à§¯": 5349,
      "Ġappoin": 5350,
      "Ġà²ħà²µà²§": 5351,
      "Ġà¤ħà¤µà¤¶": 5352,
      "ĠProject": 5353,
      "Ġattem": 5354,
      "Ġà§¨à§¦à§¨à§©": 5355,
      "Ġdistrict": 5356,
      "ittle": 5357,
      "ĠDavid": 5358,
      "ĠCharles": 5359,
      "Ġdebut": 5360,
      "Ġà²Ĩà²¡à²³": 5361,
      "ĠSingapore": 5362,
      "49": 5363,
      "field": 5364,
      "gov": 5365,
      "lor": 5366,
      "ÙĬ": 5367,
      "à¯į'": 5368,
      "Ġà°Ĭ": 5369,
      "à¤¨à¤ª": 5370,
      "à²°à²¯à²¤": 5371,
      "à³ģ-": 5372,
      "à¦¯à¦Ĺ": 5373,
      "à®³à®²": 5374,
      "à¦²à¦ĵà¦¯": 5375,
      "Ġà¦¸à¦ª": 5376,
      "Ġà¤ħà¤¸à¤®": 5377,
      "Ġà®ħà®µà®©": 5378,
      "à°Ĺà°®": 5379,
      "Ġsigned": 5380,
      "Ġsett": 5381,
      "à¦¶à¦¬": 5382,
      "à¦¹à¦£": 5383,
      "Ġà°Ĺà°²": 5384,
      "ention": 5385,
      "Ġhig": 5386,
      "ĠMind": 5387,
      "elop": 5388,
      "Ġà²ĩà²µà²¨": 5389,
      "ĠRed": 5390,
      "ĠDuch": 5391,
      "ĠLeg": 5392,
      "rag": 5393,
      "ĠWhen": 5394,
      "Ġiss": 5395,
      "Ġà¥Ń": 5396,
      "ĠEquinox": 5397,
      "ĠJames": 5398,
      "Ġste": 5399,
      "ested": 5400,
      "Ġ75": 5401,
      "à²°à²¤à²¦à²²": 5402,
      "Ġ1972": 5403,
      "à¤īà¤Ł": 5404,
      "Ġà§¨à§¦à§§à§ª": 5405,
      "Ġà§¨à§¦à§§à§«": 5406,
      "Ġà²¸à²®à²¸": 5407,
      "à¦Ĩà¦°": 5408,
      "lands": 5409,
      "Ġenc": 5410,
      "Ġ{{": 5411,
      "ĠScott": 5412,
      "Ġcommon": 5413,
      "à®°à®°à®ļ": 5414,
      "embly": 5415,
      "Ġservice": 5416,
      "stitu": 5417,
      "ĠAmerica": 5418,
      "Ġà°ħà°®à°²à°µ": 5419,
      "ification": 5420,
      "Ġgoals": 5421,
      "à¤¨à¤¸à¤Ń": 5422,
      "à°Ĩà°°": 5423,
      "Ġprofessional": 5424,
      "Ġdiffer": 5425,
      "ividual": 5426,
      "100": 5427,
      "gress": 5428,
      "liam": 5429,
      "now": 5430,
      "uese": 5431,
      "à®Ĵ": 5432,
      "Ġà²Ĭ": 5433,
      "Ġà²Ľ": 5434,
      "à¤¨à¤µà¤°": 5435,
      "à²°à²ļ": 5436,
      "à²°à²Ĺà²³à²¨": 5437,
      "à°²à°¸": 5438,
      "à¤²à¤Ń": 5439,
      "à¤²à¤ķà¤°": 5440,
      "à¦²à¦Ł": 5441,
      "Ġà¤¸à¤ļ": 5442,
      "Ġà¤®à¤ķ": 5443,
      "ined": 5444,
      "Ġà®®à®Ļ": 5445,
      "à°ªà°¦": 5446,
      "Ġfree": 5447,
      "à¦ĩà¦Ń": 5448,
      "à¦¡à¦²": 5449,
      "rote": 5450,
      "à¦¹à¦¸": 5451,
      "Ġ1920": 5452,
      "Ġmot": 5453,
      "Ġmult": 5454,
      "Ġmagazine": 5455,
      "Ġà®İà®ļ": 5456,
      "à®µà®°à®¤": 5457,
      "Ġhaving": 5458,
      "à²·à²ķ": 5459,
      "Ġà°¦à°³": 5460,
      "olid": 5461,
      "à°¶à°¨": 5462,
      "ĠBo": 5463,
      "ĠRober": 5464,
      "imately": 5465,
      "ĠLong": 5466,
      "ots": 5467,
      "Ġequ": 5468,
      "ĠFirst": 5469,
      "ĠWe": 5470,
      "Ġà¤ĸà¤®": 5471,
      "Ġcommerc": 5472,
      "ogn": 5473,
      "Ġ90": 5474,
      "Ġ1987": 5475,
      "Ġ1988": 5476,
      "à¦Ĩà¦¨": 5477,
      "Ġworking": 5478,
      "Ġà°ķà°¨à°¬à°¡": 5479,
      "Ġà²ıà²°": 5480,
      "Ġindividual": 5481,
      "Ġà¤¤à¤¹à¤¤": 5482,
      "Ġdays": 5483,
      "Ġsurv": 5484,
      "Ġcontinued": 5485,
      "ĠTechnology": 5486,
      "Ġepis": 5487,
      "alysis": 5488,
      "ittee": 5489,
      "'t": 5490,
      "46": 5491,
      "NA": 5492,
      "eak": 5493,
      "uel": 5494,
      "viron": 5495,
      "ĠÂ": 5496,
      "à¦°à¦ªà¦¤": 5497,
      "à¦¨à¦¹": 5498,
      "à¦¤à¦Ń": 5499,
      "à®³à®Łà®ķ": 5500,
      "à¦²à¦ļ": 5501,
      "Ġà¤¸à¤¡": 5502,
      "à²¤à²Ĺà²³": 5503,
      "à³Ĩ:": 5504,
      "à®ļà®¨": 5505,
      "à¤Łà¤¤": 5506,
      "ances": 5507,
      "à®£à®ķ": 5508,
      "Ġsent": 5509,
      "Ġsite": 5510,
      "itu": 5511,
      "à²Łà²µà²¨": 5512,
      "à¤£à¤¯": 5513,
      "reed": 5514,
      "Ġà¤īà¤·": 5515,
      "Ġà¦ķà¦°à¦²": 5516,
      "à¦·à¦°": 5517,
      "Ġà°®à°Ł": 5518,
      "Ġà¦¨à¦°": 5519,
      "à¦ļà¦¯": 5520,
      "ĠChe": 5521,
      "ĠTra": 5522,
      "lect": 5523,
      "à¤ıà¤ķ": 5524,
      "ilar": 5525,
      "à²·à²µ": 5526,
      "ĠPat": 5527,
      "ively": 5528,
      "Ġloss": 5529,
      "Ġà¦ĩà¦²": 5530,
      "à²¥à²®": 5531,
      "Ġà²Ĺà²®à²¨": 5532,
      "Ġà§¨à§ª": 5533,
      "Ġà¥®": 5534,
      "ully": 5535,
      "Ġbeh": 5536,
      "Ġà®Ĩà®ķà®µ": 5537,
      "Ġà§§à§¯à§§à§": 5538,
      "Ġà®ķà®Łà®¨": 5539,
      "orthern": 5540,
      "à²ĸà²µ": 5541,
      "sequ": 5542,
      "Ġà®ıà®ķ": 5543,
      "ellow": 5544,
      "ection": 5545,
      "Ġexpl": 5546,
      "à²°à²£à²¦": 5547,
      "ensive": 5548,
      "Ġ1965": 5549,
      "Ġ1959": 5550,
      "Ġà¤¸à¤¹à¤¯": 5551,
      "Ġcontrol": 5552,
      "Ġscient": 5553,
      "Ġà¦¸à¦¹à¦¯": 5554,
      "Ġallow": 5555,
      "Ġgrow": 5556,
      "ĠCommun": 5557,
      "Ġcentury": 5558,
      "Ġestim": 5559,
      "Ġgoal": 5560,
      "Ġappeared": 5561,
      "Ġfighters": 5562,
      "Ġà¤«à¤°à¤µà¤°": 5563,
      "ĠAssociation": 5564,
      "Ġesc": 5565,
      "Ġà®Ĩà®¤à®°à®µ": 5566,
      "ĠMosc": 5567,
      "ĠDevelop": 5568,
      "liament": 5569,
      "52": 5570,
      "81": 5571,
      "cher": 5572,
      "eign": 5573,
      "ness": 5574,
      "ney": 5575,
      "à°ĥ": 5576,
      "à²Ĵ": 5577,
      "Ġà²¥": 5578,
      "à¤¨à¤ļ": 5579,
      "à®ªà®ļ": 5580,
      "à²°à²¶à²¸": 5581,
      "à¤²à¤ļ": 5582,
      "Ġtimes": 5583,
      "Ġà¤¹à¤®à¤²": 5584,
      "à¤µà¤¦": 5585,
      "Ġà®ªà®Łà®®": 5586,
      "à°¯à°µ": 5587,
      "à§ĭà¦ģ": 5588,
      "itor": 5589,
      "itive": 5590,
      "Ġoften": 5591,
      "Ġfoc": 5592,
      "ases": 5593,
      "Ġà²ķà²®": 5594,
      "Ġà²ķà²£": 5595,
      "Ġà°®à°¤": 5596,
      "à¦¡à¦ª": 5597,
      "Ġà²ħà²¯": 5598,
      "Ġà¤¤à¤¨": 5599,
      "Ġà¤Ńà¤µà¤¨": 5600,
      "Ġà°ħà°ľ": 5601,
      "ĠTur": 5602,
      "Ġhand": 5603,
      "ĠMel": 5604,
      "Ġà²Ĩà²®": 5605,
      "ĠRoy": 5606,
      "Ġà°¬à°Ł": 5607,
      "Ġà²¤à²°": 5608,
      "ĠDun": 5609,
      "irth": 5610,
      "ĠLake": 5611,
      "Ġnov": 5612,
      "ĠFilm": 5613,
      "Ġà°ĩà°Ł": 5614,
      "ĠWay": 5615,
      "Ġà§¨à§©": 5616,
      "ĠEv": 5617,
      "ĠEast": 5618,
      "ĠEduc": 5619,
      "oph": 5620,
      "Ġvo": 5621,
      "à¤īà¤¨": 5622,
      "ecutive": 5623,
      "à§§à§®": 5624,
      "Ġà§¨à§¦à§§à§¨": 5625,
      "à®ĩà®¨": 5626,
      "Ġ1940": 5627,
      "Ġenergy": 5628,
      "Ġà¦ªà¦¦à¦ķ": 5629,
      "Ġenter": 5630,
      "Ġmeet": 5631,
      "Ġà¥¨à¥¦à¥¨": 5632,
      "Ġà²ħà²¦à²°à²²": 5633,
      "ĠAfrica": 5634,
      "Ġkilled": 5635,
      "ĠWilson": 5636,
      "Ġvarious": 5637,
      "Ġà¤®à¤Ĺà¤§": 5638,
      "Ġperformance": 5639,
      "91": 5640,
      "94": 5641,
      "no": 5642,
      "ware": 5643,
      "Äĩ": 5644,
      "à®ı": 5645,
      "à¯į(": 5646,
      "à³ģ:": 5647,
      "à®®à®ļ": 5648,
      "à¦²à¦ªà¦¥": 5649,
      "à²¤à²¤": 5650,
      "à°ķà°¯": 5651,
      "à¥ĩà¤Ĥ)": 5652,
      "Ġà¤ľà¤µ": 5653,
      "à°µà°Ĺ": 5654,
      "atural": 5655,
      "Ġà¤¨à¤ľ": 5656,
      "Ġwrote": 5657,
      "iting": 5658,
      "Ġfact": 5659,
      "Ġfull": 5660,
      "à¤¬à¤ķ": 5661,
      "Ġà®Ĩà®´": 5662,
      "ĠTimes": 5663,
      "à¤ıà¤²": 5664,
      "Ġdaugh": 5665,
      "Ġà²¨à²Ł": 5666,
      "ĠBull": 5667,
      "ĠPak": 5668,
      "ades": 5669,
      "Ġà²°à²ļ": 5670,
      "ĠDay": 5671,
      "Ġevery": 5672,
      "ĠFe": 5673,
      "à¦īà¦°": 5674,
      "Ġgood": 5675,
      "istry": 5676,
      "Ġwithout": 5677,
      "ago": 5678,
      "Ġà°¶à°ķ": 5679,
      "Ġà¤īà¤¸à¤¸": 5680,
      "Ġconf": 5681,
      "Ġprop": 5682,
      "ipp": 5683,
      "Ġà¤īà¤ªà¤ľ": 5684,
      "Ġchurch": 5685,
      "ordin": 5686,
      "Ġ1981": 5687,
      "ĠYear": 5688,
      "âĢįà§į": 5689,
      "Ġtext": 5690,
      "Ġ1944": 5691,
      "Ġà®ħà®´à®ķ": 5692,
      "à§§à§¯à§®": 5693,
      "ashington": 5694,
      "Ġà®ªà®¯à®£": 5695,
      "Ġorganiz": 5696,
      "Ġà¥§à¥¦": 5697,
      "ĠAccording": 5698,
      "iences": 5699,
      "vironment": 5700,
      "53": 5701,
      "cis": 5702,
      "gin": 5703,
      "ges": 5704,
      "har": 5705,
      "pro": 5706,
      "right": 5707,
      "Ġi": 5708,
      "Ġà°¥": 5709,
      "à²¿-": 5710,
      "à¤¨à¤Ł": 5711,
      "à®©à®²": 5712,
      "à²¨à²¸": 5713,
      "à²¨à²Ĺà²³à²²": 5714,
      "à®µà®£": 5715,
      "à®µà®®à®©": 5716,
      "Ġà¦¸à¦«": 5717,
      "Ġà¦ķà¦¬": 5718,
      "à®ļà®ķ": 5719,
      "à°Łà°ª": 5720,
      "oria": 5721,
      "Ġà®µà®ļà®¤": 5722,
      "Ġà°ªà°²": 5723,
      "Ġà¤¨à¤·": 5724,
      "Ġwant": 5725,
      "Ġsusp": 5726,
      "à¦ªà¦¸": 5727,
      "Ġà¦®à¦¯": 5728,
      "à¤¶à¤¬": 5729,
      "à¦¶à¦ĩ": 5730,
      "Ġà²®à²ķ": 5731,
      "Ġfront": 5732,
      "Ġinformation": 5733,
      "Ġà°µà°¯à°¸": 5734,
      "à¤ļà¤¯": 5735,
      "Ġà¤Ĺà¤¹à¤°": 5736,
      "astern": 5737,
      "Ġbi": 5738,
      "Ġà¤ıà¤¯à¤°": 5739,
      "à²ªà²µ": 5740,
      "ropp": 5741,
      "à¦¹à¦°à¦£": 5742,
      "à±Ĥ,": 5743,
      "ĠCy": 5744,
      "Ġà²¹à²£à²ķ": 5745,
      "Ġmaking": 5746,
      "Ġhon": 5747,
      "Ġhistor": 5748,
      "ĠMe": 5749,
      "ĠMod": 5750,
      "Ġà²µà²¯à²¸": 5751,
      "Ġà¦°à¦ļà¦¨": 5752,
      "ĠBang": 5753,
      "à°£à°®": 5754,
      "Ġlim": 5755,
      "ĠDr": 5756,
      "Ġfort": 5757,
      "Ġà¦ĩà¦¸à¦°": 5758,
      "ĠNA": 5759,
      "uture": 5760,
      "à¦īà¦¬": 5761,
      "Ġà°ĩà°²": 5762,
      "ĠWashington": 5763,
      "Ġà¤ĸà¤¡": 5764,
      "Ġà¤ĸà¤£": 5765,
      "ume": 5766,
      "Ġdeg": 5767,
      "Ġà²Īà²ľ": 5768,
      "ighter": 5769,
      "Ġà®ħà®±à®Ļ": 5770,
      "Ġà²¯à²¶à²¸": 5771,
      "Ġà°ıà°®": 5772,
      "Ġà¦ķà¦®à¦ª": 5773,
      "Ġ1956": 5774,
      "Ġ1957": 5775,
      "Ġcontract": 5776,
      "Ġ1947": 5777,
      "à°µà°²à°¸": 5778,
      "2005": 5779,
      "Ġplayer": 5780,
      "Ġadd": 5781,
      "Ġoffice": 5782,
      "Ġincludes": 5783,
      "Ġimport": 5784,
      "Ġeven": 5785,
      "Ġà³§à³¯à³¯à³": 5786,
      "Ø§Ø": 5787,
      "Ġdirected": 5788,
      "Ġopened": 5789,
      "Ġreview": 5790,
      "ĠSmith": 5791,
      "Ġà®īà®ªà®¯": 5792,
      "maru": 5793,
      "Ġtradition": 5794,
      "Ġrailway": 5795,
      "Ġdescribed": 5796,
      "Ġà°ļà°²à°¨à°ļ": 5797,
      "66": 5798,
      "73": 5799,
      "99": 5800,
      "lim": 5801,
      "oa": 5802,
      "ply": 5803,
      "uit": 5804,
      "}+": 5805,
      "ËĪ": 5806,
      "à±į\"": 5807,
      "à¦¨à¦ļ": 5808,
      "à¦¨à¦ĵ": 5809,
      "à°°à°¯à°¤": 5810,
      "à¤ķà¤¥": 5811,
      "à®²à®µà®°": 5812,
      "à²°à²³": 5813,
      "à°Ĥ:": 5814,
      "à¤¯à¤ľ": 5815,
      "à¦¤à¦¤": 5816,
      "Ġà¤¸à¤«à¤²": 5817,
      "Ġten": 5818,
      "Ġaver": 5819,
      "Ġà¤ªà¤ķà¤¡": 5820,
      "à¦®à¦§": 5821,
      "Ġà®ªà®°à®¤": 5822,
      "à¦Łà¦Ł": 5823,
      "à°¯à°ª": 5824,
      "Ġà®ĩà®¯à®²": 5825,
      "Ġà¤¨à¤¯": 5826,
      "Ġsum": 5827,
      "Ġà¦®à¦ŀ": 5828,
      "isher": 5829,
      "alt": 5830,
      "à²¡à²¬à²¹": 5831,
      "Ġà¤°à¤¤": 5832,
      "Ġcal": 5833,
      "à°ļà°¨": 5834,
      "ĠSanta": 5835,
      "à¦ļà¦¤": 5836,
      "à¦§à¦ķ": 5837,
      "Ġà¤ĩà¤°": 5838,
      "Ġà¦ľà¦¡": 5839,
      "à¤ıà¤Łà¤®": 5840,
      "Ġmer": 5841,
      "Ġhowever": 5842,
      "ĠIII": 5843,
      "Ġà¦°à¦Ļ": 5844,
      "oming": 5845,
      "ĠRec": 5846,
      "Ġread": 5847,
      "ĠLos": 5848,
      "Ġà¦ĩà¦ŀ": 5849,
      "Ġnow": 5850,
      "Ġecosystem": 5851,
      "Ġà²¦à²¶à²ķ": 5852,
      "Ġà¦Ľà¦¡": 5853,
      "Ġgiven": 5854,
      "lying": 5855,
      "Ġà§¨à§¨": 5856,
      "à®¤à®²à®®": 5857,
      "Ġstop": 5858,
      "acy": 5859,
      "Ġà¤īà¤¸à¤®": 5860,
      "Ġanim": 5861,
      "Ġà°İà°®": 5862,
      "Ġsee": 5863,
      "2011": 5864,
      "Ġunits": 5865,
      "ĠYou": 5866,
      "ensus": 5867,
      "weight": 5868,
      "Ġable": 5869,
      "Ġà¦¸à¦¹à¦ľ": 5870,
      "Ġà§¨à§¦à§¦à§®": 5871,
      "Ġà²ħà²µà²³": 5872,
      "Ġelect": 5873,
      "Ġcentre": 5874,
      "Ġconsid": 5875,
      "Ġmovement": 5876,
      "Ġà³¨à³¦à³§à³": 5877,
      "ĠFrank": 5878,
      "ĠCabinda": 5879,
      "anguage": 5880,
      "Ġmurder": 5881,
      "ĠAcademy": 5882,
      "Ġdocument": 5883,
      "97": 5884,
      "IC": 5885,
      "St": 5886,
      "ca": 5887,
      "hu": 5888,
      "hib": 5889,
      "ning": 5890,
      "pe": 5891,
      "pite": 5892,
      "time": 5893,
      "uf": 5894,
      "va": 5895,
      "wh": 5896,
      "za": 5897,
      "Ġ×": 5898,
      "Ġet": 5899,
      "Ġident": 5900,
      "à¤°à¤Ĺ": 5901,
      "à®ķà®ªà®Ł": 5902,
      "à³į\"": 5903,
      "à³į:": 5904,
      "à°¿\"": 5905,
      "à¤¤à¤¸": 5906,
      "à®ªà®µ": 5907,
      "à¤ķà¤²à¤¤": 5908,
      "à¥ĭ-": 5909,
      "à¯Ī)": 5910,
      "à²²à²¤": 5911,
      "à³Ĩ)": 5912,
      "Ġaff": 5913,
      "Ġaward": 5914,
      "à¤¹à¤¤à¤°": 5915,
      "à°¤à°µ": 5916,
      "Ġà¤ħà¤Ĺà¤²": 5917,
      "Ġà®ļà®£": 5918,
      "à¤ľà¤¹": 5919,
      "âĢĭ": 5920,
      "Ġsocial": 5921,
      "Ġà¤¦à¤¬": 5922,
      "à²Łà²¡": 5923,
      "Ġinsp": 5924,
      "Ġcy": 5925,
      "à¦Ĺà¦¦": 5926,
      "Ġbest": 5927,
      "ĠSovi": 5928,
      "Ġà¤Ĩà¤°à¤®": 5929,
      "ĠTom": 5930,
      "Ġà®İà®ķ": 5931,
      "Ġà°Ĺà°®à°¨": 5932,
      "Ġà²¨à²Ĺà²°": 5933,
      "ĠMk": 5934,
      "Ġà²µà²¹": 5935,
      "Ġà°¦à°Ĺ": 5936,
      "ĠPal": 5937,
      "Ġà¦¶à¦¹": 5938,
      "à°§à°°": 5939,
      "à²ļà²°à²£": 5940,
      "urther": 5941,
      "à°¹à°°": 5942,
      "Ġà°¬à°²": 5943,
      "à¤«à¤°": 5944,
      "Ġà²¤à²ª": 5945,
      "ĠDem": 5946,
      "Ġà®Ĵà®²": 5947,
      "Ġne": 5948,
      "ĠGra": 5949,
      "à°Ńà°µ": 5950,
      "ĠJos": 5951,
      "Ġ36": 5952,
      "Ġstand": 5953,
      "Ġà²ļà²³": 5954,
      "Ġà®ķà®Łà®±": 5955,
      "avy": 5956,
      "Ġprocess": 5957,
      "Ġà¤ªà¤¹à¤¨": 5958,
      "ĠVol": 5959,
      "iff": 5960,
      "ource": 5961,
      "Ġchang": 5962,
      "Ġlevel": 5963,
      "erve": 5964,
      "Ġcompan": 5965,
      "aching": 5966,
      "Ġcontribut": 5967,
      "à³Įà²Ĥ": 5968,
      "Ġperform": 5969,
      "Ġadop": 5970,
      "Ġà²ħà²¦à²ķ": 5971,
      "ĠForce": 5972,
      "ĠFrance": 5973,
      "Ġdirect": 5974,
      "ĠFlor": 5975,
      "à°ľà°¯à°µ": 5976,
      "Ġà°°à°ļà°¯": 5977,
      "ĠAssembly": 5978,
      "ĠOffice": 5979,
      "à§¨à§¦à§¦à§": 5980,
      "ĠCompany": 5981,
      "Ġeffect": 5982,
      "Ġsimilar": 5983,
      "ibrary": 5984,
      "Ġattempt": 5985,
      "Ġdifferent": 5986,
      "85": 5987,
      "89": 5988,
      "bol": 5989,
      "dom": 5990,
      "ked": 5991,
      "mon": 5992,
      "Å¡": 5993,
      "à¤ĳ": 5994,
      "à®ķà®¨": 5995,
      "à¤¿-": 5996,
      "Ġà¤ķà¤ķ": 5997,
      "à¦¨à¦Ń": 5998,
      "à³ģ\"": 5999,
      "Ġà¤ªà¤łà¤¨": 6000,
      "à°¤à°¡": 6001,
      "Ġà®ļà®¤à®µ": 6002,
      "Ġway": 6003,
      "ises": 6004,
      "Ġinfl": 6005,
      "Ġcourt": 6006,
      "Ġà®¨à®£": 6007,
      "Ġà¤īà¤°": 6008,
      "à¦Ĺà¦ķ": 6009,
      "Ġà¤Ĺà¤¢": 6010,
      "Ġà¤Ĺà¤łà¤¨": 6011,
      "à®´à®ķà®¤": 6012,
      "Ġà¦ħà¦Ļ": 6013,
      "Ġpp": 6014,
      "Ġà®Ĩà®µà®°": 6015,
      "Ġà²ħà²£": 6016,
      "à¦§à¦¬": 6017,
      "Ġà¦Ĩà¦ľ": 6018,
      "ĠCze": 6019,
      "Ġmiss": 6020,
      "Ġà°Ĺà°¡": 6021,
      "Ġà¤ªà¤°à¤¨": 6022,
      "ĠMy": 6023,
      "ĠMat": 6024,
      "à²¬à²¦": 6025,
      "à¤Ńà¤ķ": 6026,
      "à²·à²¤": 6027,
      "Ġà¦ıà¦ķà¦¦": 6028,
      "à°·à°¯": 6029,
      "à°£à°¯": 6030,
      "Ġà²°à²¸": 6031,
      "Ġà²Ĩà²µ": 6032,
      "Ġà²Ĩà²³": 6033,
      "Ġà¤ķà¤°à¤µ": 6034,
      "ĠHall": 6035,
      "Ġlake": 6036,
      "Ġà²¤à²°à²¬": 6037,
      "Ġrear": 6038,
      "Ġà¦ĩà¦ķ": 6039,
      "Ġeight": 6040,
      "Ġgreen": 6041,
      "à¤ĩà¤µ": 6042,
      "Ġà¦²à¦°": 6043,
      "isted": 6044,
      "à°³à°²": 6045,
      "agan": 6046,
      "Ġà°Ńà°ķ": 6047,
      "Ġ55": 6048,
      "estival": 6049,
      "ope": 6050,
      "Ġvot": 6051,
      "Ġà®ħà®±à®ķ": 6052,
      "alls": 6053,
      "Ġà³©": 6054,
      "Ġà³«": 6055,
      "ending": 6056,
      "Ġà®ıà®©": 6057,
      "Ġà¤ľà¤¨à¤¤": 6058,
      "à¤ħà¤²à¤Ĺ": 6059,
      "Ġpartn": 6060,
      "Ġ1968": 6061,
      "Ġà®ĵà®¯": 6062,
      "ĠNewton": 6063,
      "Ġlocomot": 6064,
      "Ġoutside": 6065,
      "1999": 6066,
      "Ġprim": 6067,
      "III": 6068,
      "Ġrelated": 6069,
      "Ġdecided": 6070,
      "Ġà¤ĭà¤·": 6071,
      "Ġà®ļà®©à®µà®°": 6072,
      "ĠOfficial": 6073,
      "ircraft": 6074,
      "Ġproduced": 6075,
      "ĠPortuguese": 6076,
      "Ġpoint": 6077,
      "iddle": 6078,
      "ĠPresident": 6079,
      "Ġmunicipality": 6080,
      "Ġappointed": 6081,
      "ĠDevelopment": 6082,
      "ĠBullock": 6083,
      "ĠCzech": 6084,
      "AF": 6085,
      "In": 6086,
      "bor": 6087,
      "ius": 6088,
      "kn": 6089,
      "ras": 6090,
      "ying": 6091,
      "à°Ĳ": 6092,
      "à¦°à¦ªà¦°": 6093,
      "à®²à®Ł": 6094,
      "à³ģ;": 6095,
      "à¦²à¦ľ": 6096,
      "Ġtest": 6097,
      "Ġtaken": 6098,
      "à°ķà°®": 6099,
      "à¤µà¤§": 6100,
      "à²µà²ľà²¨": 6101,
      "err": 6102,
      "à¦¸à¦¤": 6103,
      "Ġà¦ķà¦ł": 6104,
      "à²¸à²ķ": 6105,
      "à¤ľà¤ª": 6106,
      "Ġà¤¬à¤¦": 6107,
      "à¥Ĥ,": 6108,
      "Ġà°ķà°ķ": 6109,
      "Ġà°ķà°µ": 6110,
      "Ġà°ķà°ļ": 6111,
      "à¤¶à¤®": 6112,
      "à²®à²Ĺà²³": 6113,
      "Ġà¤Ķà¤¸à¤¤": 6114,
      "Ġpo": 6115,
      "à¤¼,": 6116,
      "Ġdi": 6117,
      "Ġà²¨à²Ĺ": 6118,
      "oul": 6119,
      "Ġà¤ªà¤°à¤¤": 6120,
      "Ġhorse": 6121,
      "Ġhalf": 6122,
      "olour": 6123,
      "ĠBi": 6124,
      "ĠBan": 6125,
      "ĠBost": 6126,
      "ĠBattle": 6127,
      "ĠPenn": 6128,
      "Ġà¦īà¦ĩà¦ķ": 6129,
      "Ġà°¤à°ķ": 6130,
      "Ġà°¤à°¯": 6131,
      "ĠHun": 6132,
      "etwork": 6133,
      "Ġà°¬à°¡": 6134,
      "ĠLiver": 6135,
      "ĠGo": 6136,
      "ĠNap": 6137,
      "uty": 6138,
      "ĠFort": 6139,
      "à¦īà¦¤": 6140,
      "Ġà°ĩà°ļ": 6141,
      "Ġgave": 6142,
      "ĠOx": 6143,
      "Ġà²ľà²Ĺà²¤": 6144,
      "Ġà¦Łà¦®": 6145,
      "à²¤à²°à²°": 6146,
      "ĠStev": 6147,
      "Ġproper": 6148,
      "aper": 6149,
      "udd": 6150,
      "à®ľà®©": 6151,
      "Ġren": 6152,
      "à§¨à§§": 6153,
      "à¤¼à¥Ģ:": 6154,
      "Ġà®ıà®°": 6155,
      "ella": 6156,
      "à¦ĩà¦¨à¦«à¦°": 6157,
      "Ġà¦īà¦ªà¦¨": 6158,
      "Ġà¦īà¦ªà¦ķ": 6159,
      "à¤ħà¤¨": 6160,
      "Ġà°ľà°¨à°µà°°": 6161,
      "à¤¸à¤²à¤®": 6162,
      "Ġcommun": 6163,
      "à°¡à°µà°ļ": 6164,
      "Ġà¥§à¥¯à¥®": 6165,
      "Ġevents": 6166,
      "à§§à§¯à§Ń": 6167,
      "duction": 6168,
      "Ġà³§à³¯à³Ń": 6169,
      "Ġorganisation": 6170,
      "ĠFrancis": 6171,
      "Ġtransl": 6172,
      "à¦®à¦¬à¦Ļ": 6173,
      "à²Ĩà²°": 6174,
      "hemat": 6175,
      "à³§à³¯à³": 6176,
      "Ġintro": 6177,
      "eleb": 6178,
      "ricket": 6179,
      "Ġversion": 6180,
      "Ġà¤ħà¤¹à¤®à¤¦": 6181,
      "ĠVirgin": 6182,
      "ĠMichael": 6183,
      "arrator": 6184,
      "levision": 6185,
      "stituency": 6186,
      "%,": 6187,
      "83": 6188,
      "86": 6189,
      "hab": 6190,
      "mad": 6191,
      "ns": 6192,
      "pool": 6193,
      "rate": 6194,
      "sel": 6195,
      "Åį": 6196,
      "âĪĴ": 6197,
      "à²ī": 6198,
      "Ġà¦ĭ": 6199,
      "à¦¾:": 6200,
      "Ġà²Ķ": 6201,
      "à¦°à¦¡": 6202,
      "à¤¯à¤Ł": 6203,
      "à¦ķà¦¶à¦¨": 6204,
      "à²¨à²®": 6205,
      "Ġà¤¹à¤¦": 6206,
      "à¦®à¦¹": 6207,
      "à²¯à²Ĺ": 6208,
      "à¤¹à¤¦": 6209,
      "era": 6210,
      "à¦¸à¦Ń": 6211,
      "à®ļà®Ł": 6212,
      "à¤Łà¤¸": 6213,
      "Ġà®µà®®": 6214,
      "enc": 6215,
      "Ġà¤ħà¤ľà¤®": 6216,
      "à¤ľà¤¬": 6217,
      "Ġà¤¬à¤®": 6218,
      "Ġsugg": 6219,
      "ita": 6220,
      "Ġà²®à²Ł": 6221,
      "à¦ľà¦¦": 6222,
      "Ġà²¸à²¤": 6223,
      "à¤£à¤µ": 6224,
      "à¦Ĺà¦ŀ": 6225,
      "icer": 6226,
      "à®´à®±": 6227,
      "à¦ĩà¦ĵà¦¯": 6228,
      "à¦·à¦Ĺ": 6229,
      "à¦·à¦Ń": 6230,
      "Ġà²ķà²ª": 6231,
      "Ġpay": 6232,
      "à¦¡à¦¬": 6233,
      "ĠCS": 6234,
      "Ġ1917": 6235,
      "Ġdeter": 6236,
      "Ġà¦¯à¦¥": 6237,
      "Ġà¦¶à¦¤à¦ķ": 6238,
      "à¦ĸà¦£": 6239,
      "Ġà¦Ĺà¦¤": 6240,
      "Ġà²°à²µà²°": 6241,
      "à²§à²¦": 6242,
      "Ġlow": 6243,
      "Ġlost": 6244,
      "Ġà²ĩà²³": 6245,
      "ĠGard": 6246,
      "iding": 6247,
      "Ġà°ĩà°¸": 6248,
      "à¦«à¦Ł": 6249,
      "Ġgirl": 6250,
      "ĠEconom": 6251,
      "ula": 6252,
      "riev": 6253,
      "Ġ400": 6254,
      "illa": 6255,
      "apl": 6256,
      "ovny": 6257,
      "à®¤à®©à®Ļ": 6258,
      "à§§à§¯": 6259,
      "Ġareas": 6260,
      "Ġà®ªà®°à®µà®²": 6261,
      "à®·à®©": 6262,
      "Ġplaying": 6263,
      "Ġ[...": 6264,
      "Ġà°ĵà°Ł": 6265,
      "Ġà®¨à®ķà®°à®Ļ": 6266,
      "ĠProv": 6267,
      "Ġdesigned": 6268,
      "Ġà§¨à§¦à§¨à§¦": 6269,
      "Ġà¤ķà¤ªà¤¡": 6270,
      "Ġfounded": 6271,
      "Ġthroughout": 6272,
      "Ġentered": 6273,
      "Ġà§§à§¯à§©à§¦": 6274,
      "Ġdeveloped": 6275,
      "Ġphys": 6276,
      "à°ķà°°à°£à°ķ": 6277,
      "retary": 6278,
      "sych": 6279,
      "Ġà¤®à¤ľà¤¬": 6280,
      "Ġeducation": 6281,
      "Ġà¦Ĩà¦ļà¦°à¦£": 6282,
      "Ġcitiz": 6283,
      "ĠDuchovny": 6284,
      "Ġcommercial": 6285,
      "ĠOxford": 6286,
      "41": 6287,
      "CH": 6288,
      "ML": 6289,
      "PA": 6290,
      "SF": 6291,
      "Vir": 6292,
      "las": 6293,
      "ux": 6294,
      "ximately": 6295,
      "Ð²": 6296,
      "ãĤ": 6297,
      "ĠØ§ÙĦ": 6298,
      "à¤¾'": 6299,
      "à¦°à¦°": 6300,
      "à¦°à¦ĩ": 6301,
      "à§ĩ-": 6302,
      "à®°à®¤à®®": 6303,
      "à¤Ĥ,": 6304,
      "Ġtric": 6305,
      "here": 6306,
      "à¤®à¤¯": 6307,
      "Ġà¤ªà¤¸": 6308,
      "à¤¹à¤¸": 6309,
      "à¥ģ-": 6310,
      "à§ģ:": 6311,
      "à²ķà²·": 6312,
      "à²ķà²¦à²²": 6313,
      "à°¡à°ķ": 6314,
      "Ġà®¤à®¤": 6315,
      "Ġà®¤à®ª": 6316,
      "Ġà®¤à®´": 6317,
      "Ġà®¤à®ŀ": 6318,
      "Ġà®ĩà®±à®ķ": 6319,
      "Ġà®µà®©": 6320,
      "Ġà°ªà°ļ": 6321,
      "âĢİ": 6322,
      "à¦ªà¦ª": 6323,
      "ala": 6324,
      "ali": 6325,
      "Ġà²®à²²": 6326,
      "Ġinj": 6327,
      "Ġcivil": 6328,
      "Ġceleb": 6329,
      "à¤§à¤°à¤£": 6330,
      "à²®à²²": 6331,
      "Ġà®¨à®ªà®°": 6332,
      "icated": 6333,
      "Ġbre": 6334,
      "Ġà²ķà²¤": 6335,
      "Ġperson": 6336,
      "Ġà¦¤à¦²": 6337,
      "Ġà¤Ńà¤¯": 6338,
      "Ġà¤Ńà¤²": 6339,
      "à¦§à¦®": 6340,
      "Ġà¦Ĩà¦ĺ": 6341,
      "ĠColl": 6342,
      "Ġà²¹à²ķ": 6343,
      "Ġà²¹à²£": 6344,
      "Ġà²¹à²£à²¦": 6345,
      "ĠMad": 6346,
      "ĠMac": 6347,
      "ĠMiss": 6348,
      "ĠMachine": 6349,
      "ilomet": 6350,
      "ĠIre": 6351,
      "Ġà¤¥à¤ķ": 6352,
      "à°¶à°®": 6353,
      "à°§à°¤": 6354,
      "à¦ĵà¦¨": 6355,
      "Ġà°¤à°Ĺ": 6356,
      "ĠHol": 6357,
      "Ġà°ľà°²à°µ": 6358,
      "Ġlook": 6359,
      "Ġà°¬à°°": 6360,
      "utan": 6361,
      "unk": 6362,
      "ump": 6363,
      "Ġà¤¡à¤°": 6364,
      "Ġà¤Łà¤°": 6365,
      "ocr": 6366,
      "ĠStory": 6367,
      "ians": 6368,
      "ape": 6369,
      "ift": 6370,
      "à®ķà®²à®®": 6371,
      "ishop": 6372,
      "Ġà¥§à¥¨": 6373,
      "Ġà¦ĺà¦°": 6374,
      "Ġuniversity": 6375,
      "Ġà®²à®Ł": 6376,
      "Ġ1942": 6377,
      "Ġ1945": 6378,
      "Ġ1946": 6379,
      "Ġ1948": 6380,
      "teg": 6381,
      "2004": 6382,
      "Ġà§¨à§¦à§¦à§§": 6383,
      "Ġaddition": 6384,
      "Ġimag": 6385,
      "Ġà¤ħà¤µà¤¸à¤°": 6386,
      "Ġ1934": 6387,
      "Ġà¥§à¥¯à¥Ń": 6388,
      "Ġhimself": 6389,
      "Ġà¤¤à¤°à¤«": 6390,
      "Ġà®ķà®©à®Ł": 6391,
      "ropical": 6392,
      "ĠCentre": 6393,
      "Ġà²ĩà²¦à²°à²²": 6394,
      "à²Ĺà²µà²¹": 6395,
      "ĠWhile": 6396,
      "Ġrecorded": 6397,
      "Ġemploy": 6398,
      "à°°à°ľà°²": 6399,
      "Ã³n": 6400,
      "Ġvalue": 6401,
      "Ġimmigration": 6402,
      "ĠAngeles": 6403,
      "Ġvideo": 6404,
      "ĠEducation": 6405,
      "ĠVirginia": 6406,
      "Ġ[...]": 6407,
      "Virar": 6408,
      ",\"": 6409,
      "bed": 6410,
      "ij": 6411,
      "mp": 6412,
      "mit": 6413,
      "win": 6414,
      "writ": 6415,
      "Ø¯": 6416,
      "Ġif": 6417,
      "Ġice": 6418,
      "à¤Ļ": 6419,
      "Ġà¦·": 6420,
      "Ġà°¢": 6421,
      "à¯ģ\"": 6422,
      "à®Łà®ļ": 6423,
      "à¦¨à¦¬à¦¨": 6424,
      "à®ªà®³à®µ": 6425,
      "à®©à®ļ": 6426,
      "à®±à®°": 6427,
      "à®¯à®¨": 6428,
      "à²¨à²Ĺ": 6429,
      "à¥¤\"": 6430,
      "à¦¬à¦Ł": 6431,
      "à²Ĺà²Ĺà²³à²¨": 6432,
      "Ġà®ĩà®±à®ª": 6433,
      "Ġà¦ıà¦«": 6434,
      "à§ĭ-": 6435,
      "atory": 6436,
      "âĢ²": 6437,
      "isl": 6438,
      "Ġà²®à²¦": 6439,
      "à¤¬à¤¹": 6440,
      "Ġà²¸à²¸": 6441,
      "Ġà¦¹à¦ķ": 6442,
      "à¤£à¤ķà¤Ł": 6443,
      "Ġà¤īà¤ľ": 6444,
      "Ġbar": 6445,
      "à°ļà°²": 6446,
      "Ġà¤ıà¤ľ": 6447,
      "ĠSystem": 6448,
      "Ġà²ªà²²": 6449,
      "Ġà²ªà²¦à²µ": 6450,
      "Ġà¦Ĩà¦¹à¦®": 6451,
      "ĠCouncil": 6452,
      "Ġà®īà®®": 6453,
      "Ġà®İà®³": 6454,
      "Ġhom": 6455,
      "ĠMur": 6456,
      "Ġà²µà²²à²¸": 6457,
      "ĠPaul": 6458,
      "Ġà°¤à°ª": 6459,
      "à³įâĢĮâĢĮ": 6460,
      "ĠHome": 6461,
      "ĠThese": 6462,
      "ĠRÃ": 6463,
      "Ġà²¤à²³": 6464,
      "ĠDon": 6465,
      "ĠLoc": 6466,
      "Ġforeign": 6467,
      "cean": 6468,
      "Ġà®ĩà®°à®µ": 6469,
      "Ġnever": 6470,
      "ĠGold": 6471,
      "idence": 6472,
      "Ġà¦Ńà¦°": 6473,
      "ĠNarrator": 6474,
      "oto": 6475,
      "rav": 6476,
      "Ġeast": 6477,
      "Ġà¦¸à¦®à¦¨": 6478,
      "à¦īà¦²": 6479,
      "à°¥à°¨": 6480,
      "Ġà§¨à§¬": 6481,
      "ĠOly": 6482,
      "Ġ54": 6483,
      "estry": 6484,
      "Ġview": 6485,
      "Ġviol": 6486,
      "à²¤à²°à²µ": 6487,
      "Ġseven": 6488,
      "2010": 6489,
      "Ġà¤Ľà¤¹": 6490,
      "Ġà¥§à¥¬": 6491,
      "Ġleast": 6492,
      "Ġship": 6493,
      "Ġclose": 6494,
      "à®Ĩà®°": 6495,
      "Ġarres": 6496,
      "Ġ1963": 6497,
      "Ġ1967": 6498,
      "Ġà¦ĩà¦¨à¦«": 6499,
      "Ġrecogn": 6500,
      "Ġà¤Ĩà¤Īà¤¸": 6501,
      "à¤ıà¤¸à¤¸": 6502,
      "ĠCarol": 6503,
      "Ġteams": 6504,
      "Ġmarried": 6505,
      "ĠBhutan": 6506,
      "Ġpolitician": 6507,
      "Ġcompleted": 6508,
      "ĠAustralian": 6509,
      "ĠPortugal": 6510,
      "iterature": 6511,
      "Ġappl": 6512,
      "ĠJackson": 6513,
      "ĠAlex": 6514,
      "ĠMindless": 6515,
      "Ġdaughter": 6516,
      "Ġcompanies": 6517,
      "Ġà°ľà°²à°µà°¨à°°": 6518,
      "CC": 6519,
      "FA": 6520,
      "ead": 6521,
      "la": 6522,
      "nes": 6523,
      "Ð»": 6524,
      "à±į:": 6525,
      "à²°à²¬à²¹": 6526,
      "à¦¯à¦Ń": 6527,
      "Ġtre": 6528,
      "à²µà²ķ": 6529,
      "Ġà®ªà®ľ": 6530,
      "ert": 6531,
      "à§ģ-": 6532,
      "à¤ªà¤Ł": 6533,
      "à°¡à°Ĺ": 6534,
      "à®¨à®ķà®°à®®": 6535,
      "Ġà®ĩà®³à®Ļ": 6536,
      "ora": 6537,
      "à°µà°ķ": 6538,
      "arter": 6539,
      "Ġsym": 6540,
      "Ġà¦®à¦ł": 6541,
      "isf": 6542,
      "à¦¶à¦¦": 6543,
      "Ġca": 6544,
      "Ġà°µà°¨": 6545,
      "à¯ĭ,": 6546,
      "ream": 6547,
      "à²®à²¸": 6548,
      "à¤ļà¤¤": 6549,
      "à¦ĩà¦¤": 6550,
      "à¦ĩà¦¹": 6551,
      "Ġbirth": 6552,
      "ĠSl": 6553,
      "ĠSil": 6554,
      "Ġà¤Ńà¤°à¤¤": 6555,
      "à¦¹à¦²": 6556,
      "Ġà°¨à°¡": 6557,
      "Ġà¦Ĩà¦¹à¦¤": 6558,
      "ĠTV": 6559,
      "Ġà²¹à²¬": 6560,
      "Ġà°Ĺà°¤": 6561,
      "ĠMet": 6562,
      "Ġà²¬à²¦": 6563,
      "ĠId": 6564,
      "Ġà¦°à¦¸": 6565,
      "à°ľà°²": 6566,
      "Ġà¦ıà¦ķà¦¤": 6567,
      "Ġà¤ļà¤¨": 6568,
      "elt": 6569,
      "ĠBut": 6570,
      "ĠBill": 6571,
      "ĠPac": 6572,
      "Ġà²Ĩà²Ł": 6573,
      "à²ľà²ª": 6574,
      "urric": 6575,
      "ĠHow": 6576,
      "ĠHistor": 6577,
      "ĠHospital": 6578,
      "igital": 6579,
      "ima": 6580,
      "Ġforces": 6581,
      "Ġnight": 6582,
      "Ġneed": 6583,
      "ĠGDP": 6584,
      "Ġà¤¸à¤®à¤¶": 6585,
      "Ġà²¦à²°": 6586,
      "utes": 6587,
      "à°Ńà°®": 6588,
      "Ġà²Ĺà²°": 6589,
      "à²µà²¨à²¦": 6590,
      "Ġà¦²à¦¨": 6591,
      "Ġ59": 6592,
      "ria": 6593,
      "ĠKe": 6594,
      "ĠKar": 6595,
      "Ġcondition": 6596,
      "Ġà¤®à¤¹à¤²": 6597,
      "Ġseen": 6598,
      "aval": 6599,
      "2016": 6600,
      "ĠVen": 6601,
      "Ġshould": 6602,
      "à¤¦à¤°à¤²": 6603,
      "ports": 6604,
      "Ġ1961": 6605,
      "Ġ1962": 6606,
      "india": 6607,
      "ĠAlab": 6608,
      "Ġ1954": 6609,
      "ample": 6610,
      "Ġà¤ħà¤®à¤°": 6611,
      "Ġ1943": 6612,
      "aterial": 6613,
      "Ġscience": 6614,
      "ĠScot": 6615,
      "Ġlocation": 6616,
      "à®µà®ķà®Ļ": 6617,
      "Ġà¥§à¥¯à¥¨": 6618,
      "Ġà¦Ĩà¦ĩà¦¸à¦²": 6619,
      "ancial": 6620,
      "Ġassist": 6621,
      "Ġaccess": 6622,
      "ledge": 6623,
      "Ġdrive": 6624,
      "Ġdriving": 6625,
      "Ġinterest": 6626,
      "Ġleading": 6627,
      "Ġgroups": 6628,
      "Ġprotest": 6629,
      "Ġprotests": 6630,
      "Ġà¤ĭà¤¤": 6631,
      "enger": 6632,
      "Ġpassed": 6633,
      "Ġfinished": 6634,
      "à²µà²¹à²£": 6635,
      "Ġdemonst": 6636,
      "ĠEurope": 6637,
      "ĠEuropean": 6638,
      "ĠJapanese": 6639,
      "Ġà¦ķà¦ĸà¦¨à¦ĵ": 6640,
      "Ġlaun": 6641,
      "ĠRailway": 6642,
      "ĠThomas": 6643,
      "Ġestimated": 6644,
      "Ġfocus": 6645,
      "ĠTurk": 6646,
      "Ġaverage": 6647,
      "Ġconsidered": 6648,
      "))": 6649,
      "2000": 6650,
      "93": 6651,
      "An": 6652,
      "fire": 6653,
      "iers": 6654,
      "ique": 6655,
      "lam": 6656,
      "most": 6657,
      "mier": 6658,
      "rish": 6659,
      "uation": 6660,
      "Ã§": 6661,
      "Ñı": 6662,
      "×Ļ": 6663,
      "Ġz": 6664,
      "à¤Ĳ": 6665,
      "Ġà¦Ķ": 6666,
      "à¤°à¤¡": 6667,
      "à¤°à¤¥": 6668,
      "à®¿),": 6669,
      "à¦°à¦Ĩà¦¨": 6670,
      "à²¿\"": 6671,
      "à¥Ģ\"": 6672,
      "à¤ķà¤®": 6673,
      "à®²à®¨": 6674,
      "à®¯à®ķà®¤": 6675,
      "à¦ķà¦¦": 6676,
      "Ġtyp": 6677,
      "à®µà®´": 6678,
      "à¦¼)": 6679,
      "Ġaut": 6680,
      "à°ķà°¤": 6681,
      "à¦¸à¦°à¦£": 6682,
      "à¦Łà¦²": 6683,
      "ones": 6684,
      "à¤Ĺà¤¡": 6685,
      "à¦¦à¦ª": 6686,
      "à°Ĺà°¢": 6687,
      "Ġwest": 6688,
      "Ġà¤¦à¤µ": 6689,
      "à¦¶à¦®": 6690,
      "Ġà°¸à°¤": 6691,
      "Ġfurther": 6692,
      "Ġinf": 6693,
      "rett": 6694,
      "icular": 6695,
      "à®´à®©": 6696,
      "Ġput": 6697,
      "Ġà¦¤à§İà¦ķ": 6698,
      "Ġà¦¦à¦ĸà¦²": 6699,
      "à¦ļà¦Ł": 6700,
      "ĠAri": 6701,
      "Ġà¤ĩà¤¬": 6702,
      "ĠTor": 6703,
      "Ġtourn": 6704,
      "Ġdet": 6705,
      "Ġà¦¯à¦¨": 6706,
      "ĠMa": 6707,
      "ĠMus": 6708,
      "Ġà¦°à¦®à¦ľ": 6709,
      "olf": 6710,
      "Ġà¤ļà¤®": 6711,
      "Ġà¤ļà¤Ł": 6712,
      "Ġà¤ļà¤¢": 6713,
      "elph": 6714,
      "ĠBest": 6715,
      "à¦ĸà¦°": 6716,
      "à²¶à²µà²¨": 6717,
      "Ġà²Ĩà²ķà²°": 6718,
      "à¦ĵà¦°": 6719,
      "Ġà®İà®©à®ķ": 6720,
      "ĠHen": 6721,
      "Ġà°ľà°²": 6722,
      "ĠRet": 6723,
      "aying": 6724,
      "ida": 6725,
      "rap": 6726,
      "Ġà²¦à²¶": 6727,
      "Ġà§¨à§Ń": 6728,
      "ĠOs": 6729,
      "Ġà²īà²¨": 6730,
      "Ġà²īà²²": 6731,
      "Ġà²¶à²¬": 6732,
      "à®ķà®®à®¤": 6733,
      "ĠUp": 6734,
      "à®µà®¤à®©": 6735,
      "Ġà²Ĵà²²": 6736,
      "Ġà°İà°°": 6737,
      "Ġdecl": 6738,
      "à¤Ĩà¤¨": 6739,
      "Ġsepar": 6740,
      "Ġ44": 6741,
      "Ġ47": 6742,
      "iple": 6743,
      "Ġà¦ħà¦¬à¦¦": 6744,
      "eph": 6745,
      "à¤¯à¤¨à¤¶": 6746,
      "Ġkey": 6747,
      "Ġkilomet": 6748,
      "ĠChina": 6749,
      "à¤īà¤¸": 6750,
      "ricult": 6751,
      "Ġ150": 6752,
      "Ġà°ıà°ķ": 6753,
      "Ġarr": 6754,
      "Ġà¤¸à¤°à¤²": 6755,
      "Ġà¤ħà¤¸à¤²": 6756,
      "ĠMark": 6757,
      "web": 6758,
      "weather": 6759,
      "Ġ1941": 6760,
      "Ġà²ķà²°à²Ĺ": 6761,
      "Ġà§¨à§¦à§¦à§ª": 6762,
      "ĠCont": 6763,
      "Ġelected": 6764,
      "à§§à§¯à§¯à§": 6765,
      "à®İà®®": 6766,
      "à²ĺà²²": 6767,
      "Ġartists": 6768,
      "Ġà®ªà®´à®®": 6769,
      "Ġà¤¨à¤µà¤®": 6770,
      "Ġcapt": 6771,
      "syl": 6772,
      "umbai": 6773,
      "Ġsecurity": 6774,
      "oleon": 6775,
      "Ġtraining": 6776,
      "ĠBooks": 6777,
      "Ġweek": 6778,
      "ĠMartin": 6779,
      "ĠRobert": 6780,
      "ĠWayback": 6781,
      "ĠSoviet": 6782,
      "known": 6783,
      "ĠLiverpool": 6784,
      "Ġtricolour": 6785,
      "ĠIreland": 6786,
      "ĠAlabama": 6787,
      "42": 6788,
      "87": 6789,
      "ES": 6790,
      "IA": 6791,
      "based": 6792,
      "cite": 6793,
      "cient": 6794,
      "ger": 6795,
      "ror": 6796,
      "val": 6797,
      "west": 6798,
      "Ġide": 6799,
      "à°Ľ": 6800,
      "à²Ĳ": 6801,
      "à¤°à¤«": 6802,
      "à®¿:": 6803,
      "à®¤à®´": 6804,
      "à¤¤à¤Ĺ": 6805,
      "à®ªà®¯": 6806,
      "à°Ĥ\"": 6807,
      "à¤¯à¤¶": 6808,
      "à®±à®µà®±": 6809,
      "à¦ķà¦Ĺ": 6810,
      "à²¨à²Ĺà²³à²¨": 6811,
      "head": 6812,
      "à¦¼;": 6813,
      "Ġaircraft": 6814,
      "ination": 6815,
      "Ġà¤ªà¤Ł": 6816,
      "à²µà²µà²°": 6817,
      "à°¯à°Ł": 6818,
      "Ġà¦ķà¦ª": 6819,
      "Ġà¦ķà¦£": 6820,
      "à¤¦à¤¶": 6821,
      "à¤ªà¤¥": 6822,
      "Ġà¦ªà¦¬": 6823,
      "Ġà®¤à®°à®ª": 6824,
      "ores": 6825,
      "à°µà°¦": 6826,
      "Ġwind": 6827,
      "alp": 6828,
      "à¦ľà¦§": 6829,
      "à¤·à¤¸": 6830,
      "Ġft": 6831,
      "Ġfif": 6832,
      "Ġcase": 6833,
      "Ġcirc": 6834,
      "reme": 6835,
      "Ġà¤īà¤ªà¤°": 6836,
      "Ġà¤Ĺà¤²à¤¤": 6837,
      "à¦ĩà¦¦": 6838,
      "Ġbann": 6839,
      "à¦·à¦°à¦¤": 6840,
      "à¦¼à§ĩ,": 6841,
      "Ġà¤¤à¤¸": 6842,
      "road": 6843,
      "ĠAward": 6844,
      "ĠCamp": 6845,
      "ĠTw": 6846,
      "Ġmob": 6847,
      "Ġà²¨à²®": 6848,
      "ĠMil": 6849,
      "ĠMax": 6850,
      "ilities": 6851,
      "ston": 6852,
      "Ġà°Ĩà°ª": 6853,
      "à²¹à²²": 6854,
      "ĠBu": 6855,
      "ĠPeople": 6856,
      "adian": 6857,
      "adelph": 6858,
      "à¦ĵà¦¡": 6859,
      "uras": 6860,
      "ĠHa": 6861,
      "à²§à²ķ": 6862,
      "à²¦à²°à²²": 6863,
      "ĠRadio": 6864,
      "iger": 6865,
      "ĠDi": 6866,
      "Ġreached": 6867,
      "ĠLibrary": 6868,
      "Ġà¦ĩà¦¬à¦¨": 6869,
      "ĠGreen": 6870,
      "Ġgreat": 6871,
      "Ġà¤īà¤¨à¤¸": 6872,
      "ĠEth": 6873,
      "istics": 6874,
      "aged": 6875,
      "ĠOl": 6876,
      "anded": 6877,
      "Ġstaff": 6878,
      "ĠInt": 6879,
      "ĠUl": 6880,
      "Ġà®Ĩà®ķà®¤": 6881,
      "Ġà¤¬à¤¨à¤¨": 6882,
      "Ġ42": 6883,
      "Ġ46": 6884,
      "Ġà®Ĭà®Łà®ķ": 6885,
      "Ġà¤īà¤ªà¤ļ": 6886,
      "ender": 6887,
      "à¤īà¤¥": 6888,
      "climate": 6889,
      "à§§à§¨": 6890,
      "Ġà¤ĳà¤ķ": 6891,
      "Ġshare": 6892,
      "ĠAnn": 6893,
      "wood": 6894,
      "ression": 6895,
      "2007": 6896,
      "Ġà²ħà²µà²ķ": 6897,
      "Ġcommission": 6898,
      "obal": 6899,
      "ailable": 6900,
      "Ġà¥§à¥¯à¥¯à¥": 6901,
      "à¤ķà¤¸à¤Ń": 6902,
      "stitution": 6903,
      "Ġassoci": 6904,
      "Ġartist": 6905,
      "Ġà°ªà°¦à°µ": 6906,
      "Ġà§§à§¯à§®à§¦": 6907,
      "ĠGrand": 6908,
      "ĠClub": 6909,
      "Ġpopular": 6910,
      "ĠGeorg": 6911,
      "Ġeventually": 6912,
      "Ġproduct": 6913,
      "ĠMinister": 6914,
      "Ġtechnology": 6915,
      "Ġinvestig": 6916,
      "Ġproducer": 6917,
      "Ġapproximately": 6918,
      "Ġeconomic": 6919,
      "ĠMexico": 6920,
      "Ġprior": 6921,
      "Ġnovel": 6922,
      "Ġcitizens": 6923,
      "adelphia": 6924,
      ")(": 6925,
      ")}": 6926,
      "51": 6927,
      "92": 6928,
      "ID": 6929,
      "IT": 6930,
      "]]": 6931,
      "board": 6932,
      "cast": 6933,
      "graph": 6934,
      "oes": 6935,
      "off": 6936,
      "sin": 6937,
      "wight": 6938,
      "®maru": 6939,
      "Ð´": 6940,
      "ÛĮ": 6941,
      "à¥¥": 6942,
      "à¦°à¦¬à¦°": 6943,
      "à®¤à®ķà®®": 6944,
      "à¤¿)": 6945,
      "à°¿-": 6946,
      "à°¾)": 6947,
      "à®©à®ķ": 6948,
      "à°²à°ľ": 6949,
      "Ġtarg": 6950,
      "à¥Ī-": 6951,
      "à¦®à¦ķà¦°": 6952,
      "Ġà®ªà®¨": 6953,
      "à¤¦à¤Ĺ": 6954,
      "à¤¦à¤¬": 6955,
      "à¤ªà¤¯": 6956,
      "Ġà®¤à®µà®±": 6957,
      "à²¸à²®": 6958,
      "Ġà¤µà¤ľà¤¹": 6959,
      "Ġ1000": 6960,
      "ences": 6961,
      "Ġà®ļà®²": 6962,
      "à°Ĺà°¡": 6963,
      "Ġà¦®à¦¦": 6964,
      "ither": 6965,
      "Ġfav": 6966,
      "Ġfire": 6967,
      "à²Łà²®": 6968,
      "Ġinstitut": 6969,
      "Ġcollege": 6970,
      "à±Ĩ.": 6971,
      "Ġà®¨à®¤": 6972,
      "Ġà¤Ķà¤¦": 6973,
      "Ġpast": 6974,
      "ioneer": 6975,
      "ĠSo": 6976,
      "ĠSol": 6977,
      "à¦¹à¦¨": 6978,
      "Ġà¦¨à¦®": 6979,
      "à¦ļà¦®": 6980,
      "Ġà°ħà°Ł": 6981,
      "Ġà°ħà°¬": 6982,
      "Ġà¦Ĩà¦Łà¦ķ": 6983,
      "Ġmount": 6984,
      "Ġder": 6985,
      "Ġdam": 6986,
      "Ġdiv": 6987,
      "Ġà¤ıà¤ķà¤®": 6988,
      "Ġhold": 6989,
      "ĠMo": 6990,
      "à°ľà°®": 6991,
      "ĠBas": 6992,
      "Ġà²°à²µ": 6993,
      "Ġà²Ĩà²¨": 6994,
      "urb": 6995,
      "Ġlive": 6996,
      "Ġlight": 6997,
      "Ġliving": 6998,
      "Ġà¦ļà¦¨": 6999,
      "ĠRich": 7000,
      "ĠDC": 7001,
      "ĠDire": 7002,
      "Ġreform": 7003,
      "imb": 7004,
      "ĠLu": 7005,
      "ĠLie": 7006,
      "Ġà¤¸à¤®à¤ķ": 7007,
      "Ġà¦Ńà¦¬": 7008,
      "ĠNot": 7009,
      "ĠFound": 7010,
      "Ġà¦Ľà¦¯": 7011,
      "Ġget": 7012,
      "ĠWomen": 7013,
      "uled": 7014,
      "Ġstar": 7015,
      "Ġstri": 7016,
      "Ġstated": 7017,
      "à¦ıà¦ķ": 7018,
      "Ġ51": 7019,
      "aces": 7020,
      "acher": 7021,
      "ĠKh": 7022,
      "Ġà®ħà®°à®Ļ": 7023,
      "Ġant": 7024,
      "Ġalthough": 7025,
      "Ġdev": 7026,
      "à¦Ļà¦ļ": 7027,
      "Ġvia": 7028,
      "Ġà®ķà®Łà®µ": 7029,
      "aves": 7030,
      "Ġà®Ĭà®ķ": 7031,
      "Ġà®ħà®²à®ķ": 7032,
      "elling": 7033,
      "Ġplant": 7034,
      "à¦°à¦¸à¦²": 7035,
      "Ġexhib": 7036,
      "Ġà²¸à²®à²°": 7037,
      "ieved": 7038,
      "Ġarmy": 7039,
      "Ġparticular": 7040,
      "à°¯à°ķà°¤": 7041,
      "Ġplayers": 7042,
      "Ġà§¨à§¦à§¦à§«": 7043,
      "Ġà²ħà²ªà²°": 7044,
      "Ġ1939": 7045,
      "Ġmanuf": 7046,
      "Ġcoordin": 7047,
      "Ġà¥§à¥¯à¥«": 7048,
      "hess": 7049,
      "Ġregional": 7050,
      "Ġfilms": 7051,
      "ificant": 7052,
      "Ġaccording": 7053,
      "........": 7054,
      "Ġà¤®à¤¦à¤°à¤¸": 7055,
      "Ġtransfer": 7056,
      "Ġà§§à§¦à§¦": 7057,
      "ĠIsland": 7058,
      "Ġprojects": 7059,
      "Ġcorps": 7060,
      "Ġeconomy": 7061,
      "ĠPhiladelphia": 7062,
      "Ġsuccessful": 7063,
      "Ġà¦Ĺà¦Ńà¦°": 7064,
      "Ġà°Ĩà°Ĺà°¸": 7065,
      "Ġlargest": 7066,
      "Ġcandidates": 7067,
      "ĠDepartment": 7068,
      "Ġconstruction": 7069,
      "Ġinvolved": 7070,
      "Ġprivate": 7071,
      "ĠScottish": 7072,
      "Ġdegree": 7073,
      "ĠPennsyl": 7074,
      "ĠOlymp": 7075,
      "Ġtournament": 7076,
      "Ġmanufact": 7077,
      "ĠPennsylvan": 7078,
      ".),": 7079,
      "98": 7080,
      "PI": 7081,
      "ault": 7082,
      "cd": 7083,
      "cle": 7084,
      "hood": 7085,
      "iation": 7086,
      "iate": 7087,
      "lad": 7088,
      "mi": 7089,
      "men": 7090,
      "town": 7091,
      "à¶": 7092,
      "Ġ#": 7093,
      "Ġà²·": 7094,
      "à¦°à¦¥": 7095,
      "à¦¿\"": 7096,
      "à¤¨à¤ķà¤°": 7097,
      "à¤¤à¤ļ": 7098,
      "à¦¨à¦²": 7099,
      "à¤ķà¤£": 7100,
      "à¦¤à¦Ĺ": 7101,
      "à²²à²µà²¨": 7102,
      "à³Ĩ\"": 7103,
      "à¤µà¤°à¤ķ": 7104,
      "erous": 7105,
      "Ġà¦¸à¦ļ": 7106,
      "à¤ªà¤ļ": 7107,
      "Ġà¦¬à¦¸à¦¬": 7108,
      "à²³à²µà²¨": 7109,
      "ano": 7110,
      "edd": 7111,
      "edy": 7112,
      "arian": 7113,
      "Ġà¤¨à¤¨": 7114,
      "Ġwel": 7115,
      "Ġà¤¬à¤ķ": 7116,
      "à¦ªà¦£": 7117,
      "isp": 7118,
      "à°ªà°¥": 7119,
      "Ġà¤°à¤¨": 7120,
      "nder": 7121,
      "Ġà²®à²³": 7122,
      "Ġfig": 7123,
      "Ġà²¸à²¨": 7124,
      "à¤£à¤¤": 7125,
      "Ġcut": 7126,
      "rel": 7127,
      "ication": 7128,
      "Ġà²ķà²µà²²": 7129,
      "Ġà¤ıà¤ª": 7130,
      "ĠSocial": 7131,
      "ĠSouthern": 7132,
      "à¤¼à¥ī": 7133,
      "ĠApp": 7134,
      "Ġà¤¶à¤¹": 7135,
      "ĠTrent": 7136,
      "Ġmid": 7137,
      "Ġmus": 7138,
      "Ġdark": 7139,
      "Ġdraw": 7140,
      "Ġhospital": 7141,
      "ĠMP": 7142,
      "ĠMass": 7143,
      "ĠMilit": 7144,
      "Ġà²¬à²¸": 7145,
      "Ġà²µà²ķ": 7146,
      "Ġà¦°à¦¹à¦®": 7147,
      "à¤Ńà¤µà¤¤": 7148,
      "staff": 7149,
      "ela": 7150,
      "Ġà¤ĩà¤¸à¤¨": 7151,
      "Ġà¦īà¦ķ": 7152,
      "à¦ĵà¦¤": 7153,
      "ĠHill": 7154,
      "ĠHind": 7155,
      "ira": 7156,
      "Ġà¦ĩà¦°": 7157,
      "ceed": 7158,
      "ĠGreat": 7159,
      "uten": 7160,
      "à¦īà¦ķ": 7161,
      "ements": 7162,
      "à¤°à¤ķà¤Ł": 7163,
      "umn": 7164,
      "ĠOb": 7165,
      "Ġstructure": 7166,
      "Ġà®ħà®®à®°": 7167,
      "aches": 7168,
      "à¤łà¤ķ": 7169,
      "Ġwhom": 7170,
      "Ġà®Ĩà®ķà®¸": 7171,
      "Ġhealth": 7172,
      "ability": 7173,
      "Ġvoc": 7174,
      "ĠStep": 7175,
      "Ġà®ªà®Łà®Ļ": 7176,
      "Ġ62": 7177,
      "à°°à°ķà°Ł": 7178,
      "okwell": 7179,
      "ples": 7180,
      "à§§à§«": 7181,
      "Ġà¦ĺà¦£": 7182,
      "Ġspent": 7183,
      "à®Ĩà®Ļ": 7184,
      "Ġ1955": 7185,
      "ampion": 7186,
      "Ġà®īà®±à®µ": 7187,
      "Ġworkers": 7188,
      "2002": 7189,
      "2009": 7190,
      "ĠScully": 7191,
      "Ġadap": 7192,
      "Ġ1936": 7193,
      "Ġà®ĩà®©à®Ļ": 7194,
      "à¦®à¦ķà¦°à¦£": 7195,
      "Ġà®ªà®±à®µ": 7196,
      "ĠShel": 7197,
      "ĠArchitect": 7198,
      "Ġà¦Ĩà¦ĩà¦¸": 7199,
      "Ġà³§à³¯à³¬": 7200,
      "ĠSpec": 7201,
      "ĠPhys": 7202,
      "Ġrelations": 7203,
      "Ġdecision": 7204,
      "Ġprovide": 7205,
      "Ġsoft": 7206,
      "ĠAngola": 7207,
      "Ġcampus": 7208,
      "Ġterrit": 7209,
      "ĠCanada": 7210,
      "Ġestablish": 7211,
      "ĠBhav": 7212,
      "Ġsongs": 7213,
      "Ġoriginally": 7214,
      "ĠDavis": 7215,
      "Ġà¦Ńà¦¬à¦¨à¦Ł": 7216,
      "Ġfemale": 7217,
      "Ġequip": 7218,
      "Ġbehind": 7219,
      "ĠPakistan": 7220,
      "Ġtraditional": 7221,
      "Ġawarded": 7222,
      "Ġinflu": 7223,
      "ĠBoston": 7224,
      "ĠHenry": 7225,
      "Ġà²¦à²¶à²²à²ķ": 7226,
      "ĠPennsylvania": 7227,
      "%),": 7228,
      "AM": 7229,
      "Al": 7230,
      "FM": 7231,
      "MD": 7232,
      "bu": 7233,
      "bury": 7234,
      "che": 7235,
      "de": 7236,
      "gs": 7237,
      "iqu": 7238,
      "ned": 7239,
      "nani": 7240,
      "ye": 7241,
      "¯à§¦": 7242,
      "Äį": 7243,
      "à¦¾\"": 7244,
      "à§ĩà¦ģ": 7245,
      "à¤¿à¥¤": 7246,
      "à±ģ\"": 7247,
      "à¤ķà¤¤à¤°": 7248,
      "à®©à®Ł": 7249,
      "à²¦à²Ĺà²³": 7250,
      "Ġà¤¸à¤°à¤¸": 7251,
      "à²²à²Ĺ": 7252,
      "à²²à²¯à²µ": 7253,
      "à³Ĩ;": 7254,
      "à¤®à¤µ": 7255,
      "à²Ĺà²Ł": 7256,
      "à²Ĺà²®": 7257,
      "à¤µà¤¡": 7258,
      "à²µà²¯": 7259,
      "à²¯à²Ĺà²³à²²": 7260,
      "à¦¸à¦¡": 7261,
      "à°¯à°¦à°Ĺ": 7262,
      "Ġà¦¸à¦ľ": 7263,
      "Ġà¦¸à¦«à¦²": 7264,
      "à¤Ĺà¤¸": 7265,
      "à²³à²µà²£": 7266,
      "atal": 7267,
      "atre": 7268,
      "âĢī": 7269,
      "à¯Ĩ.": 7270,
      "Ġsw": 7271,
      "Ġsol": 7272,
      "Ġsquad": 7273,
      "à¤¡à¤¸": 7274,
      "Ġfuture": 7275,
      "Ġà²¸à²Ń": 7276,
      "Ġcle": 7277,
      "Ġcou": 7278,
      "Ġcost": 7279,
      "Ġcross": 7280,
      "Ġcateg": 7281,
      "Ġà®¨à®Łà®©": 7282,
      "Ġà¤Ĺà¤ł": 7283,
      "Ġben": 7284,
      "Ġà¤ıà¤°": 7285,
      "à¦¡à¦®": 7286,
      "ĠSal": 7287,
      "ĠSince": 7288,
      "rov": 7289,
      "Ġà¤Ĩà¤ı": 7290,
      "Ġà¤Ĩà¤īà¤Ł": 7291,
      "Ġà¦Ĩà¦ĵà¦¯": 7292,
      "ĠAut": 7293,
      "ĠColle": 7294,
      "ĠTer": 7295,
      "ĠTwo": 7296,
      "Ġmaterial": 7297,
      "Ġdou": 7298,
      "Ġdest": 7299,
      "ĠMusic": 7300,
      "ĠMumbai": 7301,
      "Ġà²¬à²Ł": 7302,
      "ĠIP": 7303,
      "à°¬à°¨": 7304,
      "Ġà°Ĩà°¦": 7305,
      "Ġà¤ļà¤¤": 7306,
      "ĠBig": 7307,
      "Ġà¦īà¦°": 7308,
      "Ġà²Ĩà²®à²¦": 7309,
      "à°¹à°¸": 7310,
      "Ġà²ĩà²Ł": 7311,
      "Ġà²¤à²ķ": 7312,
      "ĠDer": 7313,
      "ĠDwight": 7314,
      "à§ĥ.": 7315,
      "ĠLim": 7316,
      "Ġonce": 7317,
      "Ġà¦ĩà¦ļ": 7318,
      "Ġà¦ĩà¦Ń": 7319,
      "à¥īà¥°": 7320,
      "ĠGh": 7321,
      "ĠGen": 7322,
      "ĠGage": 7323,
      "oted": 7324,
      "Ġà°ĩà°¤à°¡": 7325,
      "Ġgames": 7326,
      "emor": 7327,
      "ĠJust": 7328,
      "ĠOh": 7329,
      "ĠOw": 7330,
      "Ġà°Ńà°Ł": 7331,
      "Ġstory": 7332,
      "à²Ńà²µà²¨": 7333,
      "Ġ57": 7334,
      "ĠInformation": 7335,
      "ĠKub": 7336,
      "Ġà¦¡à¦ķ": 7337,
      "Ġà®µà®°à®µ": 7338,
      "Ġà¤®à¤¹à¤°": 7339,
      "Ġà²ļà²Ł": 7340,
      "à¤°à¤¸à¤¨": 7341,
      "à¤°à¤®à¤¶": 7342,
      "Ġ43": 7343,
      "Ġà¤ĺà¤Łà¤ķ": 7344,
      "Ġà¤īà¤ªà¤Ń": 7345,
      "antin": 7346,
      "Ġà¤ķà¤¹à¤¨": 7347,
      "sec": 7348,
      "à°ĸà°²": 7349,
      "Ġà³§": 7350,
      "Ġà®ıà®¤": 7351,
      "ustr": 7352,
      "à®¤à®°à®ª": 7353,
      "Ġ81": 7354,
      "ounter": 7355,
      "Ġà¥§à¥Ń": 7356,
      "Ġleague": 7357,
      "Ġexample": 7358,
      "clop": 7359,
      "Ġcontest": 7360,
      "ĠOnes": 7361,
      "à¦Ĩà¦®": 7362,
      "ĠAsian": 7363,
      "rama": 7364,
      "2008": 7365,
      "Ġà§¨à§¦à§¦à§©": 7366,
      "Ġà°®à°¹à°®": 7367,
      "1994": 7368,
      "Ġà²§à²®à²¨": 7369,
      "Ġtrack": 7370,
      "Ġ1922": 7371,
      "ribution": 7372,
      "Ġà³§à³¯à³®": 7373,
      "Ġretired": 7374,
      "Ġarticle": 7375,
      "à²¥à²³à²¦à²²": 7376,
      "ĠTele": 7377,
      "Ġentire": 7378,
      "Ġmeans": 7379,
      "Ġà§§à§«à§§à§¦": 7380,
      "Ġà²¬à²²à²¹": 7381,
      "Ġà¤īà¤ªà¤¨à¤Ĺà¤°": 7382,
      "plement": 7383,
      "Ġhttp": 7384,
      "Ġcountries": 7385,
      "Ġbroad": 7386,
      "ÑģÐº": 7387,
      "Ġà®ķà®´à®ķà®®": 7388,
      "ĠKingdom": 7389,
      "Ġimmigr": 7390,
      "Ġrepresented": 7391,
      "à¦¬à¦¹à¦¨": 7392,
      "Ġvictim": 7393,
      "Ġfeatured": 7394,
      "ĠQueen": 7395,
      "Ġsignificant": 7396,
      "Ġcertain": 7397,
      "ĠDoctor": 7398,
      "novation": 7399,
      "Ġavailable": 7400,
      "à¦Ĺà¦łà¦¨": 7401,
      "ĠMuham": 7402,
      "ĠCrookwell": 7403,
      "Ġencou": 7404,
      "ĠLongstaff": 7405,
      "Ġepisode": 7406,
      "ĠÂ£": 7407,
      "ĠRÃ®maru": 7408,
      "ĠScotland": 7409,
      "ĠRetriev": 7410,
      "cdot": 7411,
      "ĠBhavnani": 7412,
      "'-": 7413,
      "600": 7414,
      "95": 7415,
      "IN": 7416,
      "Un": 7417,
      "be": 7418,
      "cal": 7419,
      "da": 7420,
      "gen": 7421,
      "lap": 7422,
      "sw": 7423,
      "top": 7424,
      "ä¸": 7425,
      "Ġx": 7426,
      "Ġill": 7427,
      "à°ı": 7428,
      "à³¯": 7429,
      "à¤°à¤ĸà¤£": 7430,
      "à¤°à¤«à¤²": 7431,
      "à¤¿:": 7432,
      "à¤¨à¤Ĺà¤°": 7433,
      "à¤ķà¤²à¤¨": 7434,
      "à®©à®µà®°": 7435,
      "à¦ķà¦¡": 7436,
      "Ġà¤¸à¤Ł": 7437,
      "à²¨à²¯": 7438,
      "Ġtax": 7439,
      "à¦¬à¦ĩ": 7440,
      "à²µà²Ł": 7441,
      "à²µà²µà²¨": 7442,
      "à²¯à²ķà²°": 7443,
      "Ġà®ªà®µ": 7444,
      "Ġà®ªà®´à®ķ": 7445,
      "à°¦à°³": 7446,
      "Ġà®ķà®µà®°": 7447,
      "Ġà®®à®ļ": 7448,
      "à°¡à°¤": 7449,
      "Ġà¤ľà¤¯à¤ª": 7450,
      "à°Łà°¸": 7451,
      "à²¸à²¤": 7452,
      "à¤Ĺà¤¶": 7453,
      "Ġ120": 7454,
      "atives": 7455,
      "Ġà®ļà®µ": 7456,
      "isions": 7457,
      "à¤¶à¤°": 7458,
      "à²¡à²¸": 7459,
      "à²¡à²Ĺà²³": 7460,
      "Ġà¤¦à¤«à¤¨": 7461,
      "Ġà¤°à¤µ": 7462,
      "à¦ľà¦²": 7463,
      "Ġfed": 7464,
      "Ġcensus": 7465,
      "à²®à²¦à²²": 7466,
      "Ġà¤īà¤Ĺ": 7467,
      "à°ļà°µà°ļ": 7468,
      "Ġà®Ĩà®¸": 7469,
      "ĠSir": 7470,
      "ĠSpr": 7471,
      "à¤¼à¤¾à¥¤": 7472,
      "à¤¼à¤¾,": 7473,
      "à¦¹à§İ": 7474,
      "ĠAtt": 7475,
      "ĠCath": 7476,
      "Ġà¦ľà¦²à¦¬": 7477,
      "à¦¼à¦¾à¦Ĥ": 7478,
      "à¦Ńà¦¸": 7479,
      "Ġà¦¯à¦¤": 7480,
      "à¥Īà¤Ĥ-": 7481,
      "Ġà°°à°£": 7482,
      "amil": 7483,
      "Ġà¦ıà¦ķà¦®": 7484,
      "ĠBet": 7485,
      "ĠPubl": 7486,
      "ctors": 7487,
      "Ġà²Ĩà²¶": 7488,
      "à°¹à°®": 7489,
      "à°¹à°°à°£": 7490,
      "ette": 7491,
      "igan": 7492,
      "igious": 7493,
      "Ġnine": 7494,
      "Ġà¦Ńà¦Ł": 7495,
      "ĠFollow": 7496,
      "ĠField": 7497,
      "Ġgot": 7498,
      "ĠWater": 7499,
      "terweight": 7500,
      "ows": 7501,
      "Ġcondu": 7502,
      "Ġdeal": 7503,
      "Ġsection": 7504,
      "ĠStar": 7505,
      "iance": 7506,
      "iller": 7507,
      "2013": 7508,
      "ude": 7509,
      "à²ĸà²°": 7510,
      "à®ľà®ķ": 7511,
      "à®ľà®°": 7512,
      "Ġà®¤à®®à®¤": 7513,
      "Ġplans": 7514,
      "ĠChic": 7515,
      "Ġshar": 7516,
      "Ġroute": 7517,
      "Ġ1953": 7518,
      "Ġjud": 7519,
      "Ġjournal": 7520,
      "overed": 7521,
      "Ġà¦¸à¦°à¦¬à¦°": 7522,
      "Ġà®®à®°à®Ļ": 7523,
      "à¦°à¦¹à¦£à¦ķ": 7524,
      "Ġadminist": 7525,
      "Ġothers": 7526,
      "ĠProgram": 7527,
      "ailed": 7528,
      "à°İà°²": 7529,
      "ĠConserv": 7530,
      "à¦ªà¦ķà¦Ń": 7531,
      "Ġà§§à§®à§¬": 7532,
      "ĠCommand": 7533,
      "ĠSpit": 7534,
      "à¦¸à¦®à¦¯": 7535,
      "ixed": 7536,
      "iero": 7537,
      "à®ķà®£à®ķ": 7538,
      "Ġgoing": 7539,
      "ĠCarl": 7540,
      "Ġaccept": 7541,
      "Ġinterview": 7542,
      "Ġfollowed": 7543,
      "ĠOrgan": 7544,
      "Ġwriter": 7545,
      "ealth": 7546,
      "Ġphot": 7547,
      "Ġà²İà²¡à²¹": 7548,
      "Ġmilitia": 7549,
      "Ġà°īà°¦à°¯": 7550,
      "rainian": 7551,
      "Ġtitled": 7552,
      "Ġhousehold": 7553,
      "Ġrespons": 7554,
      "Ġparticipated": 7555,
      "Ġpoints": 7556,
      "Ġmonths": 7557,
      "Ġincrease": 7558,
      "Ġà¤¸à¤«à¤²à¤¤": 7559,
      "Ġpossible": 7560,
      "Ġindependence": 7561,
      "ĠPetra": 7562,
      "Ġneigh": 7563,
      "ĠNapoleon": 7564,
      "ĠCarolina": 7565,
      "Ġlaunched": 7566,
      "ĠShelby": 7567,
      "ĠRetrieved": 7568,
      "ĠFollowing": 7569,
      "OH": 7570,
      "OS": 7571,
      "PE": 7572,
      "fe": 7573,
      "prom": 7574,
      "Ã¤": 7575,
      "Ã¸": 7576,
      "Ġ%": 7577,
      "à°Ī": 7578,
      "à¯į/": 7579,
      "à¯į).": 7580,
      "à¯ģ-": 7581,
      "à®°à®¨": 7582,
      "à¤¨à¤¹": 7583,
      "à¦¨à¦ª": 7584,
      "à®²à®¯à®®": 7585,
      "à²°à²¶": 7586,
      "à²°à²°à²¨": 7587,
      "à¤¯à¤¯": 7588,
      "à¦²à¦ª": 7589,
      "à²¨à²µà²°": 7590,
      "à¦¬à¦¤à¦¨": 7591,
      "Ġà¤®à¤Ľà¤²": 7592,
      "à¤µà¤¹": 7593,
      "à¦Łà¦Ń": 7594,
      "à°¯à°§": 7595,
      "Ġà¦¸à¦«à¦°": 7596,
      "Ġà¦¬à¦ľ": 7597,
      "orpor": 7598,
      "Ġà¦ıà¦¯": 7599,
      "Ġ110": 7600,
      "Ġwife": 7601,
      "Ġsitu": 7602,
      "à¦ªà¦ķà¦°": 7603,
      "ites": 7604,
      "à°ªà°¨": 7605,
      "à°ªà°¬à°¡": 7606,
      "à¦¶à¦ªà¦¥": 7607,
      "Ġà²®à²°à²£": 7608,
      "à¦ľà¦Ĺ": 7609,
      "asion": 7610,
      "à®´à®®": 7611,
      "Ġpain": 7612,
      "Ġpark": 7613,
      "à¦¡à¦ķ": 7614,
      "Ġà²ħà²·": 7615,
      "ĠSC": 7616,
      "Ġà¤Ńà¤Ł": 7617,
      "Ġà¤Ĩà¤ĸ": 7618,
      "Ġà¦Ĩà¦ķà¦°": 7619,
      "Ġà¦Ĩà¦¦à¦°": 7620,
      "ĠAz": 7621,
      "ĠCO": 7622,
      "ĠCivil": 7623,
      "Ġà²¹à²ļ": 7624,
      "Ġà²¹à²³à²¦": 7625,
      "à¤ıà¤ļ": 7626,
      "Ġmy": 7627,
      "Ġà°īà°°": 7628,
      "Ġà¤ıà¤ķà¤²": 7629,
      "à®µà®°à®©": 7630,
      "ĠMov": 7631,
      "ĠMary": 7632,
      "ĠIl": 7633,
      "à°¬à°®": 7634,
      "olic": 7635,
      "Ġà°Ĩà°¹": 7636,
      "à²¹à²¸": 7637,
      "à°¶à°ª": 7638,
      "ĠBal": 7639,
      "Ġà¦īà¦ĩ": 7640,
      "Ġà¦Ĺà¦®": 7641,
      "Ġà²Ĩà²¤à²¨": 7642,
      "à¦ĵà¦ª": 7643,
      "à²ľà²¸": 7644,
      "Ġà²ĩà²¬": 7645,
      "ĠDie": 7646,
      "Ġà¦ĵà¦ª": 7647,
      "ĠLou": 7648,
      "ĠLuc": 7649,
      "Ġà¦ĩà¦®": 7650,
      "Ġnomin": 7651,
      "ids": 7652,
      "ĠNIC": 7653,
      "raine": 7654,
      "ĠFootball": 7655,
      "ĠWeb": 7656,
      "unt": 7657,
      "Ġà¤īà¤¨à¤®": 7658,
      "Ġà§¨à§¯": 7659,
      "Ġisland": 7660,
      "ĠJim": 7661,
      "ĠJain": 7662,
      "ĠJew": 7663,
      "ĠOcean": 7664,
      "à§¦à§©": 7665,
      "tha": 7666,
      "ths": 7667,
      "anda": 7668,
      "ĠKen": 7669,
      "Ġanalysis": 7670,
      "Ġalmost": 7671,
      "Ġconc": 7672,
      "Ġconstituency": 7673,
      "Ġveh": 7674,
      "bernet": 7675,
      "aps": 7676,
      "ĠVer": 7677,
      "Ġà¤ĺà¤¨": 7678,
      "ourism": 7679,
      "à²ĸà²²": 7680,
      "à®ľà®¯": 7681,
      "Ġ63": 7682,
      "Ġ64": 7683,
      "Ġrange": 7684,
      "ective": 7685,
      "ĠArts": 7686,
      "Ġà°«à°°": 7687,
      "à§§à§ª": 7688,
      "Ġà¦ĺà¦¨": 7689,
      "Ġà°ıà°¨": 7690,
      "Ġroom": 7691,
      "Ġ1964": 7692,
      "Ġà¦īà¦¦à¦¯": 7693,
      "Ġà§¨à§¦à§¦à§¦": 7694,
      "Ġtelevision": 7695,
      "Ġ1949": 7696,
      "Ġà³§à³®": 7697,
      "Ġraised": 7698,
      "2001": 7699,
      "Ġbecoming": 7700,
      "Ġ1937": 7701,
      "Ġà²Ĩà²Ĺà²¸": 7702,
      "à°ľà°¨à°¨": 7703,
      "ways": 7704,
      "à²¯à²®à²Ĺà²³": 7705,
      "Ġ1928": 7706,
      "ĠLeon": 7707,
      "ĠCommittee": 7708,
      "ĠSpanish": 7709,
      "anced": 7710,
      "Ġstudy": 7711,
      "Ġstudent": 7712,
      "Ġedition": 7713,
      "cyclop": 7714,
      "Ġthemsel": 7715,
      "Ġfeature": 7716,
      "Ġprovided": 7717,
      "ĠPolit": 7718,
      "Ġreports": 7719,
      "Ã¡n": 7720,
      "ĠCanadian": 7721,
      "Ġdiscuss": 7722,
      "Ġfootballer": 7723,
      "Ġvictory": 7724,
      "ĠLatin": 7725,
      "ĠFederation": 7726,
      "Ġbombers": 7727,
      "Ġsquare": 7728,
      "Ġpolicy": 7729,
      "roops": 7730,
      "ĠCamille": 7731,
      "Ġà²ķà²£à²¶": 7732,
      "Ġinspired": 7733,
      "Ġpartnership": 7734,
      "ĠFrancisco": 7735,
      "Ġwelterweight": 7736,
      "Ġthemselves": 7737,
      ".).": 7738,
      "300": 7739,
      "88": 7740,
      "Th": 7741,
      "action": 7742,
      "bra": 7743,
      "eep": 7744,
      "ground": 7745,
      "ji": 7746,
      "mark": 7747,
      "ule": 7748,
      "wa": 7749,
      "ËĲ": 7750,
      "Ø³": 7751,
      "à¦Ī": 7752,
      "à¥įâĢĮ": 7753,
      "à§įâĢĮ": 7754,
      "à®¤à®³à®¤": 7755,
      "à²°à²ķà²°": 7756,
      "à¦¯à¦Ł": 7757,
      "à¤¯à¤¹": 7758,
      "à¦¤à¦¦": 7759,
      "à¤¸à¤¹": 7760,
      "à¤¸à¤Ł": 7761,
      "à²²à²¯à²Ĺà²³": 7762,
      "à¤®à¤¶": 7763,
      "inese": 7764,
      "à¤µà¤¹à¤¨": 7765,
      "à¦¸à¦¸": 7766,
      "à¦¸à¦«": 7767,
      "à¦Łà¦ª": 7768,
      "à±ĭ-": 7769,
      "ont": 7770,
      "onom": 7771,
      "Ġà¦¸à¦¦à¦°": 7772,
      "à²ķà²¸": 7773,
      "à¤¦à¤¯": 7774,
      "à°¡à°Ł": 7775,
      "à°¡à°¬": 7776,
      "à¤Łà¤«": 7777,
      "à¤Ĺà¤®à¤¨": 7778,
      "à²³à²¬": 7779,
      "à²³à²¬à²¹": 7780,
      "Ġà®µà®±": 7781,
      "ati": 7782,
      "à°Ĺà°ľ": 7783,
      "Ġsound": 7784,
      "Ġsize": 7785,
      "Ġsuff": 7786,
      "à¦ªà¦·": 7787,
      "à°ªà°·": 7788,
      "à¦ľà¦¤": 7789,
      "à¤·à¤°à¤¤": 7790,
      "Ġà²¸à²ķ": 7791,
      "Ġà¦¹à¦°": 7792,
      "Ġins": 7793,
      "Ġà°µà°²à°¨": 7794,
      "à²®à²¯": 7795,
      "Ġà¤²à¤ĺ": 7796,
      "Ġbus": 7797,
      "Ġbord": 7798,
      "Ġbox": 7799,
      "Ġbillion": 7800,
      "Ġà²ķà²Ľ": 7801,
      "ĠSk": 7802,
      "ĠSen": 7803,
      "ĠSome": 7804,
      "Ġà¤¤à¤¯": 7805,
      "Ġà²ªà²¦à²ķ": 7806,
      "Ġà¦Ĩà¦¸à¦²": 7807,
      "ĠAW": 7808,
      "Ġtold": 7809,
      "Ġà²¹à²°à²¡": 7810,
      "à¦Ńà¦°": 7811,
      "à¤ıà¤¶à¤¨": 7812,
      "Ġded": 7813,
      "Ġdom": 7814,
      "Ġà°Ĺà°µà°°": 7815,
      "Ġhow": 7816,
      "Ġhall": 7817,
      "Ġhair": 7818,
      "Ġhuman": 7819,
      "ĠMer": 7820,
      "Ġà¦°à¦ļ": 7821,
      "à°ľà°§": 7822,
      "à¤Īà¤¸": 7823,
      "olit": 7824,
      "Ġà¤ļà¤²à¤¨": 7825,
      "eler": 7826,
      "ĠBre": 7827,
      "ĠBir": 7828,
      "ĠPioneer": 7829,
      "chol": 7830,
      "ado": 7831,
      "à°§à°®": 7832,
      "à²¶à²Ĺà²³à²¨": 7833,
      "Ġlin": 7834,
      "Ġà¦ļà¦ķ": 7835,
      "ĠRam": 7836,
      "ĠLife": 7837,
      "ĠLiber": 7838,
      "idae": 7839,
      "Ġà¦Ńà¦¯": 7840,
      "ĠNorthern": 7841,
      "à¦«à¦¨": 7842,
      "Ġge": 7843,
      "ĠWrit": 7844,
      "Ġà¤ĸà¤¤": 7845,
      "unction": 7846,
      "ĠEr": 7847,
      "uments": 7848,
      "ĠJe": 7849,
      "ĠJournal": 7850,
      "ĠOver": 7851,
      "Ġ34": 7852,
      "osing": 7853,
      "Ġ56": 7854,
      "Ġà²¶à²°": 7855,
      "rier": 7856,
      "rief": 7857,
      "ĠKal": 7858,
      "Ġà¦¡à¦¬": 7859,
      "ably": 7860,
      "Ġà¤®à¤¹à¤¸": 7861,
      "Ġsector": 7862,
      "ava": 7863,
      "ĠSte": 7864,
      "Ġprof": 7865,
      "Ġà°Ĵà°ª": 7866,
      "Ġcomb": 7867,
      "2019": 7868,
      "2012": 7869,
      "Ġ66": 7870,
      "Ġà¤Ľà¤µ": 7871,
      "à§¨à§«": 7872,
      "à§¨à§©": 7873,
      "Ġà®°à®ļ": 7874,
      "ends": 7875,
      "elled": 7876,
      "oke": 7877,
      "Ġchange": 7878,
      "Ġchampion": 7879,
      "ĠArun": 7880,
      "Ġà¥§à¥¯": 7881,
      "à¤ĺà¤¨": 7882,
      "Ġspeed": 7883,
      "Ġà¤Īà¤¶": 7884,
      "ĠAlthough": 7885,
      "ampton": 7886,
      "Ġcontro": 7887,
      "iki": 7888,
      "Ġà¦¦à¦²à¦Ł": 7889,
      "Ġitself": 7890,
      "Ġenvironment": 7891,
      "Ġà®ļà®°à®£": 7892,
      "}}}": 7893,
      "Ġ1931": 7894,
      "à¦Ĺà¦¤à¦Ń": 7895,
      "Ġusing": 7896,
      "Ġà§¨à§¦à§¨à§ª": 7897,
      "Ġknow": 7898,
      "Ġ1921": 7899,
      "Ġcentral": 7900,
      "Ġqual": 7901,
      "Ġquarter": 7902,
      "Ġà°§à°°": 7903,
      "Ġà§§à§¯à§¬à§¦": 7904,
      "Ġleadership": 7905,
      "Ġcreate": 7906,
      "Ġà¥¨à¥¦à¥¦à¥Ń": 7907,
      "Ġbuildings": 7908,
      "Ġcapital": 7909,
      "Ġalongside": 7910,
      "Ġsystems": 7911,
      "Ġremains": 7912,
      "à°¶à°ķà°¤": 7913,
      "Ġmanagement": 7914,
      "Ġà¦ıà¦ĸà¦¨à¦ĵ": 7915,
      "Ġvisit": 7916,
      "Ġà®Ĳà®¤à®°à®ļà®©": 7917,
      "ĠUkraine": 7918,
      "Ġselected": 7919,
      "Ġclaimed": 7920,
      "ĠBraz": 7921,
      "Ġloan": 7922,
      "ĠRoyal": 7923,
      "Ġimportant": 7924,
      "ĠFlorida": 7925,
      "Ġattempted": 7926,
      "Ġsuggested": 7927,
      "ocratic": 7928,
      "Ġsymbol": 7929,
      "urricane": 7930,
      "Ġkilometres": 7931,
      "ĠStephen": 7932,
      "ĠMuhammad": 7933,
      "ĠChicago": 7934,
      "NS": 7935,
      "Or": 7936,
      "SR": 7937,
      "TC": 7938,
      "cul": 7939,
      "eace": 7940,
      "htt": 7941,
      "oon": 7942,
      "pan": 7943,
      "war": 7944,
      "Å«": 7945,
      "à¤Ķ": 7946,
      "à±į),": 7947,
      "à®¤à®³à®®": 7948,
      "à®Łà®¯à®Ļ": 7949,
      "à¤Ĥà¥¤": 7950,
      "à¦¨à¦®à¦¨": 7951,
      "à®¯à®ķà®°": 7952,
      "à²¤à²¡": 7953,
      "à¦¬à¦°à¦£": 7954,
      "Ġach": 7955,
      "à²Ĺà²Ĺà²³à²²": 7956,
      "Ġà®ªà®£à®®": 7957,
      "onel": 7958,
      "Ġà®®à®´": 7959,
      "à°¡à°¡": 7960,
      "à®ķà®³à®¤": 7961,
      "à°®à°¡": 7962,
      "à°®à°¸": 7963,
      "Ġà¤ľà¤Ł": 7964,
      "Ġà¦ıà¦ľ": 7965,
      "Ġà¦ıà¦¸à¦¬": 7966,
      "à¤Ĺà¤µà¤¤": 7967,
      "atter": 7968,
      "à¤ľà¤¤": 7969,
      "à¥Ĥ-": 7970,
      "Ġà¦®à¦ķ": 7971,
      "itation": 7972,
      "Ġà²®à²£": 7973,
      "Ġà²¸à²ļ": 7974,
      "à²Łà²¦à²²": 7975,
      "Ġcast": 7976,
      "reement": 7977,
      "Ġà¤²à¤®": 7978,
      "à®ªà®Łà®²": 7979,
      "à®ªà®Łà®µ": 7980,
      "Ġbattle": 7981,
      "Ġà²ķà²ļ": 7982,
      "Ġpers": 7983,
      "Ġpract": 7984,
      "Ġà¤ıà¤¥à¤²": 7985,
      "ĠSara": 7986,
      "à²ªà²²": 7987,
      "à¤¼à¥Ģ,": 7988,
      "ros": 7989,
      "Ġà°ħà°¶": 7990,
      "Ġà¦Ĩà¦ª": 7991,
      "ĠCirc": 7992,
      "ĠTex": 7993,
      "Ġtoo": 7994,
      "Ġà¤¯à¤ľ": 7995,
      "Ġmale": 7996,
      "Ġmiddle": 7997,
      "Ġà°īà°®": 7998,
      "ential": 7999,
      "Ġà¤ıà¤ķà¤¤": 8000,
      "Ġhous": 8001,
      "Ġholid": 8002,
      "ĠMunicip": 8003,
      "ĠIMD": 8004,
      "amm": 8005,
      "ĠBusiness": 8006,
      "ĠBudd": 8007,
      "change": 8008,
      "Ġà¦īà¦Ĺ": 8009,
      "à°§à°µ": 8010,
      "à²¶à²ķà²°": 8011,
      "Ġà²°à²ľà²ª": 8012,
      "Ġlab": 8013,
      "Ġless": 8014,
      "Ġlik": 8015,
      "ĠLoe": 8016,
      "aya": 8017,
      "Ġnatural": 8018,
      "Ġthought": 8019,
      "rab": 8020,
      "Ġà²¦à²¤": 8021,
      "Ġà¦¸à¦®à¦ķ": 8022,
      "Ġà°ĩà°°": 8023,
      "Ġgive": 8024,
      "ĠWood": 8025,
      "Ġà¤ĸà¤¤à¤°": 8026,
      "à¤°à¤ķà¤°": 8027,
      "à²Ńà²¦": 8028,
      "Ġ52": 8029,
      "acustr": 8030,
      "ĠUnder": 8031,
      "vert": 8032,
      "Ġhere": 8033,
      "Ġà¤¬à¤¨à¤µ": 8034,
      "Ġvote": 8035,
      "à°²à°¨à°²": 8036,
      "iant": 8037,
      "à°µà°°à°ķ": 8038,
      "Ġà®ªà®²à®°": 8039,
      "odes": 8040,
      "à²¯à²µà²¹": 8041,
      "Ġplain": 8042,
      "ĠUnivers": 8043,
      "Ġà°«à°¸": 8044,
      "ffler": 8045,
      "rang": 8046,
      "à§§à§©": 8047,
      "à¤ĺà¤Łà¤¨": 8048,
      "Ġà°ıà°ª": 8049,
      "Ġparts": 8050,
      "anga": 8051,
      "à²¸à²°à²¨": 8052,
      "Ġà¤¸à¤¹à¤®à¤¤": 8053,
      "cont": 8054,
      "à¦ĩà¦Łà¦Ł": 8055,
      "Ġpercent": 8056,
      "Ġimplement": 8057,
      "}}{": 8058,
      "Ġà®ħà®µà®ļ": 8059,
      "à®°à®°à®ļà®°": 8060,
      "ĠEncyclop": 8061,
      "ĠProfess": 8062,
      "Ġà²ıà²³": 8063,
      "Ġà¥§à¥¯à¥ª": 8064,
      "1998": 8065,
      "à²İà²²": 8066,
      "Ġ1927": 8067,
      "Ġ1929": 8068,
      "ĠSpain": 8069,
      "Ġà¤¸à¤¤à¤¹": 8070,
      "Ġcenter": 8071,
      "à¤ĸà¤¨à¤Ĭ": 8072,
      "ĠâĪĴ": 8073,
      "Ġà¦ĩà¦īà¦ķ": 8074,
      "Ġà°ħà°°à°¬": 8075,
      "inner": 8076,
      "Ġschools": 8077,
      "Ġleader": 8078,
      "Ġsinger": 8079,
      "Ġappearance": 8080,
      "ĠAndre": 8081,
      "ĠWhite": 8082,
      "ĠGermany": 8083,
      "Ġoperations": 8084,
      "incip": 8085,
      "Ġobserv": 8086,
      "Ġstrong": 8087,
      "Ġcharacters": 8088,
      "ription": 8089,
      "Ġcollection": 8090,
      "Ġindustrial": 8091,
      "Ġfunding": 8092,
      "ĠMexican": 8093,
      "àµį": 8094,
      "ready": 8095,
      "Ġà§¯à§Ń": 8096,
      "ĠDelhi": 8097,
      "Ġreplaced": 8098,
      "Ġbeginning": 8099,
      "Ġà°Ĭà°°": 8100,
      "Ġhighest": 8101,
      "Ġmultiple": 8102,
      "Ġmeeting": 8103,
      "ĠLieuten": 8104,
      "Ġbenef": 8105,
      "ĠCatholic": 8106,
      "ĠSpitfire": 8107,
      "ĠIMDb": 8108,
      "ĠLoeffler": 8109,
      "acustrine": 8110,
      "BI": 8111,
      "RL": 8112,
      "SP": 8113,
      "TO": 8114,
      "ging": 8115,
      "iop": 8116,
      "night": 8117,
      "rations": 8118,
      "sen": 8119,
      "tion": 8120,
      "Ø¨": 8121,
      "á¹": 8122,
      "ï»": 8123,
      "Ġens": 8124,
      "à°ī": 8125,
      "Ġà²Ŀ": 8126,
      "à®¤à®ķà®¤": 8127,
      "à¤¿.": 8128,
      "à®Łà®ķà®¤": 8129,
      "à®¾)": 8130,
      "à¤¨à¤¡": 8131,
      "à¤¨à¤¤à¤®": 8132,
      "à¯Ī\"": 8133,
      "à¦²à¦°": 8134,
      "Ġà¤¸à¤¸": 8135,
      "Ġtri": 8136,
      "à°ķà°¬à°¡": 8137,
      "à¤µà¤®": 8138,
      "à¤µà¤£": 8139,
      "à¦Łà¦®": 8140,
      "à§ģà¥¤": 8141,
      "onse": 8142,
      "Ġà¦¸à¦ł": 8143,
      "Ġà¦¬à¦ĩà¦Ł": 8144,
      "à°µà°¬à°¡": 8145,
      "anagan": 8146,
      "Ġà¤ħà¤¯": 8147,
      "Ġà¤ħà¤ĸ": 8148,
      "à°Ĺà°³": 8149,
      "à¤ľà¤Ĺ": 8150,
      "aries": 8151,
      "Ġwoman": 8152,
      "à¦ªà¦Ĺ": 8153,
      "Ġà²¸à²µ": 8154,
      "à¤£à¤µà¤¤": 8155,
      "ications": 8156,
      "asing": 8157,
      "à¦ĩà¦«": 8158,
      "Ġboard": 8159,
      "Ġpil": 8160,
      "Ġpress": 8161,
      "Ġpoor": 8162,
      "ingu": 8163,
      "inger": 8164,
      "à¦¡à¦°": 8165,
      "Ġà²ħà²ļ": 8166,
      "ĠSeb": 8167,
      "à²ªà²£": 8168,
      "à²ªà²§à²®à²¨": 8169,
      "à¦¹à¦¬": 8170,
      "Ġà°ħà°¡à°µ": 8171,
      "ĠCricket": 8172,
      "Ġà¤¶à¤ķà¤¤": 8173,
      "Ġtowards": 8174,
      "Ġà¦ľà¦Ĺà¦¤": 8175,
      "Ġ1918": 8176,
      "Ġ1912": 8177,
      "Ġmass": 8178,
      "Ġmiles": 8179,
      "ental": 8180,
      "à®µà®°à®°": 8181,
      "ĠMain": 8182,
      "Ġà²¬à²¨": 8183,
      "à²·à²ķà²°": 8184,
      "ste": 8185,
      "Ġà°Ĩà°µà°°à°£": 8186,
      "amani": 8187,
      "ĠBald": 8188,
      "ĠPo": 8189,
      "ĠPeter": 8190,
      "add": 8191,
      "Ġà°¤à°¦": 8192,
      "à²ľà²¦": 8193,
      "ĠHel": 8194,
      "ĠRon": 8195,
      "ĠRod": 8196,
      "ĠRif": 8197,
      "ĠRost": 8198,
      "Ġà°¬à°¨": 8199,
      "ĠDave": 8200,
      "irm": 8201,
      "ĠLomb": 8202,
      "Ġforced": 8203,
      "Ġonline": 8204,
      "aylor": 8205,
      "à¥ī.": 8206,
      "Ġnetwork": 8207,
      "otel": 8208,
      "ĠFestival": 8209,
      "Ġà²İà²³": 8210,
      "à¦īà¦¯": 8211,
      "Ġgear": 8212,
      "Ġà§¨à§®": 8213,
      "ĠJay": 8214,
      "ĠOf": 8215,
      "ĠUr": 8216,
      "ĠKhan": 8217,
      "Ġà²Ĵà²¯": 8218,
      "Ġwhose": 8219,
      "Ġà°Īà°®": 8220,
      "Ġconference": 8221,
      "à®ªà®°à®ķ": 8222,
      "Ġà²ļà²²": 8223,
      "aker": 8224,
      "ube": 8225,
      "Ġcome": 8226,
      "2015": 8227,
      "2017": 8228,
      "2014": 8229,
      "ĠVict": 8230,
      "ify": 8231,
      "Ġà¤ĺà¤Ł": 8232,
      "Ġà¤ĺà¤¨à¤¤": 8233,
      "Ġà°¸à°®à°°": 8234,
      "ipl": 8235,
      "Ġ79": 8236,
      "antic": 8237,
      "Ġ600": 8238,
      "à¤ķà¤¤à¤®": 8239,
      "Ġplan": 8240,
      "Ġà¤²à¤Ĺà¤¨": 8241,
      "ĠChinese": 8242,
      "ects": 8243,
      "orea": 8244,
      "Ġà®ļà®®à®¯à®¤": 8245,
      "Ġexam": 8246,
      "Ġexist": 8247,
      "ĠIts": 8248,
      "à¤ħà¤ª": 8249,
      "Ġ1796": 8250,
      "Ġà¦¬à¦²à¦¤": 8251,
      "Ġrock": 8252,
      "ĠAnton": 8253,
      "ibility": 8254,
      "Ġà¤ªà¤¤à¤¨": 8255,
      "Ġscript": 8256,
      "Ġà¤Ĩà¤°à¤Ĩà¤°": 8257,
      "ologies": 8258,
      "ĠAsia": 8259,
      "à¦¬à¦²à¦®": 8260,
      "2006": 8261,
      "Ġà§¨à§¦à§¦à§¨": 8262,
      "Ġà²ħà²µà²¶": 8263,
      "Ġ250": 8264,
      "Ġà²ıà²·": 8265,
      "1996": 8266,
      "1997": 8267,
      "à°°à°¹à°°": 8268,
      "Ġà¦Ĩà¦¸à¦°": 8269,
      "Ġà®®à®£à®¨": 8270,
      "Ġregular": 8271,
      "ĠCommission": 8272,
      "Ġformation": 8273,
      "Ġmove": 8274,
      "duced": 8275,
      "à²Łà²ķà²¦": 8276,
      "Ġfeet": 8277,
      "Ġtransport": 8278,
      "Ġsubsequ": 8279,
      "ĠFlanagan": 8280,
      "ĠUSA": 8281,
      "Ġà§§à§¯à§¬à§¯": 8282,
      "Ġsupported": 8283,
      "Ġà§§à§¯à§¯à§¯": 8284,
      "à®°à®£à®Ļ": 8285,
      "Ġmatches": 8286,
      "Ġà¦ıà¦®à¦¨à¦ķ": 8287,
      "Ġwriting": 8288,
      "ĠAlliance": 8289,
      "Ġopening": 8290,
      "Ġowned": 8291,
      "ĠExp": 8292,
      "Ġbooks": 8293,
      "Ġbrother": 8294,
      "ÑģÑĤ": 8295,
      "ĠHarry": 8296,
      "Ġremaining": 8297,
      "ĠCorpor": 8298,
      "Ġà¦°à¦¬à¦²à¦ķ": 8299,
      "Ġmarket": 8300,
      "Ġinvestment": 8301,
      "Ġresponse": 8302,
      "aught": 8303,
      "Ġprofessor": 8304,
      "ĠParliament": 8305,
      "Ġbasis": 8306,
      "ĠSea": 8307,
      "Ġarchitect": 8308,
      "Ġdefeated": 8309,
      "Ġrequired": 8310,
      "ĠService": 8311,
      "Ġcritic": 8312,
      "ĠRosa": 8313,
      "Ġpreviously": 8314,
      "ĠVenturas": 8315,
      "Ġissues": 8316,
      "Ġscientific": 8317,
      "Ġallowed": 8318,
      "ĠCommunist": 8319,
      "Ġwanted": 8320,
      "ĠRecords": 8321,
      "Ġperformed": 8322,
      "ĠEconomic": 8323,
      "sychology": 8324,
      "Ġimaginary": 8325,
      "Ġtarget": 8326,
      "Ġvocals": 8327,
      "ĠArchitecture": 8328,
      "ĠIPSF": 8329,
      "promo": 8330,
      "ĠRifle": 8331,
      "Ar": 8332,
      "MT": 8333,
      "RA": 8334,
      "US": 8335,
      "bers": 8336,
      "di": 8337,
      "een": 8338,
      "gio": 8339,
      "ho": 8340,
      "hik": 8341,
      "iated": 8342,
      "ken": 8343,
      "mb": 8344,
      "mat": 8345,
      "nel": 8346,
      "oz": 8347,
      "rast": 8348,
      "ship": 8349,
      "ving": 8350,
      "wer": 8351,
      "Ã±": 8352,
      "àª": 8353,
      "à¤¾à¥ħ": 8354,
      "à¦°à¦ĸ": 8355,
      "à§ĩ.": 8356,
      "à®¤à®³": 8357,
      "à®°à®£à®¤": 8358,
      "à®®à®¨": 8359,
      "à¤¯à¤°à¤¸": 8360,
      "à²¦à²¯": 8361,
      "à²¦à²¯à²¦": 8362,
      "à®¯à®£": 8363,
      "à¦ķà¦ª": 8364,
      "à²¤à²¸": 8365,
      "à²¤à²ª": 8366,
      "Ġtroops": 8367,
      "à®µà®ķà®®": 8368,
      "hel": 8369,
      "heast": 8370,
      "Ġà¤¹à¤¨": 8371,
      "à²Ĺà²¬à²¹": 8372,
      "à°ķà°²à°²": 8373,
      "à²¯à²¬à²¹": 8374,
      "à°¤à°Ł": 8375,
      "à°¯à°Ĺ": 8376,
      "à°¯à°ªà°¡": 8377,
      "à²Ĥ.": 8378,
      "Ġà¦¸à¦ŀ": 8379,
      "à²ķà²Ĺà²³": 8380,
      "à®ļà®µ": 8381,
      "Ġà®¤à®°à®®": 8382,
      "Ġà®ĩà®´à®ª": 8383,
      "à¤Ĺà¤ª": 8384,
      "Ġà¤µà¤ļà¤¨": 8385,
      "à®£à®²": 8386,
      "Ġà®µà®Łà®®": 8387,
      "Ġoil": 8388,
      "Ġà°ķà°®à°²": 8389,
      "Ġsat": 8390,
      "Ġà¦®à¦¡": 8391,
      "à¤·à¤§": 8392,
      "Ġfle": 8393,
      "Ġfarm": 8394,
      "Ġcour": 8395,
      "Ġchem": 8396,
      "Ġcases": 8397,
      "rey": 8398,
      "à¤ļà¤µ": 8399,
      "à³ĩ.": 8400,
      "Ġà¤²à¤ĸà¤¨à¤Ĭ": 8401,
      "icro": 8402,
      "Ġà¦ħà¦®": 8403,
      "à®ªà®Łà®ķ": 8404,
      "Ġbo": 8405,
      "Ġbound": 8406,
      "Ġboy": 8407,
      "Ġpun": 8408,
      "ĠSub": 8409,
      "ĠSaf": 8410,
      "Ġà¤Ĩà¤¦à¤°": 8411,
      "Ġà¦¦à¦°à¦ľ": 8412,
      "Ġà¦ľà¦Ł": 8413,
      "à¦¼à¦¾-": 8414,
      "à¦Ńà¦Ļ": 8415,
      "Ġ1915": 8416,
      "Ġda": 8417,
      "à²£à²°": 8418,
      "Ġhard": 8419,
      "Ġhours": 8420,
      "ĠMick": 8421,
      "ĠMagazine": 8422,
      "à¥Īà¤Ĥ;": 8423,
      "ĠIll": 8424,
      "à°ľà°ª": 8425,
      "ĠBur": 8426,
      "Ġà¦¶à¦¨": 8427,
      "Ġà¦īà¦®": 8428,
      "Ġà¦Ĺà¦¨": 8429,
      "ctic": 8430,
      "à²ļà²¦": 8431,
      "à²ļà²²": 8432,
      "ĠHuman": 8433,
      "Ġlack": 8434,
      "Ġlittle": 8435,
      "Ġlanguage": 8436,
      "ĠTheatre": 8437,
      "ĠRom": 8438,
      "ĠRog": 8439,
      "ĠRout": 8440,
      "ĠDeb": 8441,
      "ĠLove": 8442,
      "ĠGreek": 8443,
      "Ġà²İà²ļ": 8444,
      "à¦īà¦¥": 8445,
      "à°Ńà°¦": 8446,
      "à²¥à²°": 8447,
      "à¤ĩà¤«à¤²": 8448,
      "ĠEle": 8449,
      "ĠOther": 8450,
      "ĠOpen": 8451,
      "Ġ39": 8452,
      "ands": 8453,
      "Ġà°Ńà°¦": 8454,
      "ĠUN": 8455,
      "Ġà¦ĸà¦°à¦ļ": 8456,
      "ocese": 8457,
      "Ġalready": 8458,
      "Ġà¤¬à¤¨à¤¤": 8459,
      "Ġ72": 8460,
      "Ġ73": 8461,
      "Ġ77": 8462,
      "Ġradio": 8463,
      "endar": 8464,
      "Ġ2026": 8465,
      "Ġà²ªà²°à²®": 8466,
      "Ġ99": 8467,
      "Ġchart": 8468,
      "Ġà¤ĵà¤µà¤°": 8469,
      "Ġà¥§à¥©": 8470,
      "Ġlearn": 8471,
      "Ġà®ħà®°à®ļà®©": 8472,
      "à®ķà®´à®ķ": 8473,
      "Ġà¤ĳà¤ªà¤°": 8474,
      "Ġyouth": 8475,
      "à§©à§¦": 8476,
      "à²°à²ķà²Ł": 8477,
      "Ġclimate": 8478,
      "à®·à®¯à®Ļ": 8479,
      "Ġcomposed": 8480,
      "ension": 8481,
      "ublican": 8482,
      "Ġà¦Ĩà¦¨à¦¨": 8483,
      "ĠThat": 8484,
      "Ġà®Ĳà®¯à®©": 8485,
      "Ġ1951": 8486,
      "Ġà¦ħà¦¬à¦¸à¦°": 8487,
      "force": 8488,
      "Ġraces": 8489,
      "2003": 8490,
      "Ġà²īà²ªà²Ń": 8491,
      "Ġà²®à²¹à²¤": 8492,
      "Ġà¦Ĩà¦®à¦°": 8493,
      "Ġà°ĵà°ª": 8494,
      "ĠShar": 8495,
      "ĠProt": 8496,
      "Ġà¥§à¥¯à¥¬": 8497,
      "1993": 8498,
      "à¦¼à§Ģ,": 8499,
      "à²¯à²®à²¦": 8500,
      "Ġà§«à§¦": 8501,
      "à®İà®©": 8502,
      "à®ħà®²": 8503,
      "Ġorganization": 8504,
      "Ġstudio": 8505,
      "Ġactive": 8506,
      "à¦ħà¦¨": 8507,
      "Ġacqu": 8508,
      "Ġacadem": 8509,
      "Ġà®īà®²à®ķà®ª": 8510,
      "Ġà°°à°ļà°¨à°²": 8511,
      "Ġà§§à§¯à§«à§¦": 8512,
      "uke": 8513,
      "tained": 8514,
      "Ġparents": 8515,
      "à²³à²µà²¡": 8516,
      "ĠAnderson": 8517,
      "Ġblack": 8518,
      "ĠPlay": 8519,
      "ĠIslam": 8520,
      "Ġshowed": 8521,
      "à³¨à³¦": 8522,
      "Ġminutes": 8523,
      "ographic": 8524,
      "ĠGloria": 8525,
      "Ġà²Ĳà²¦": 8526,
      "Ġfinancial": 8527,
      "à¦ķà¦¸à¦Ń": 8528,
      "Ġolder": 8529,
      "Ġprograms": 8530,
      "Ġà¤¬à¤ľà¤Ł": 8531,
      "Ġremained": 8532,
      "ĠAbb": 8533,
      "Ġà¦Ĩà¦«à¦Ĺ": 8534,
      "Ġguit": 8535,
      "Ġtrade": 8536,
      "Ġmodern": 8537,
      "Ġgenus": 8538,
      "à²ķà²°à²£à²Ĺà²³": 8539,
      "Ġbands": 8540,
      "Ġportray": 8541,
      "ĠSecond": 8542,
      "Ġ3713": 8543,
      "Ġlegal": 8544,
      "Ġincreased": 8545,
      "ĠQueens": 8546,
      "ĠSupreme": 8547,
      "ĠUkrainian": 8548,
      "ĠDunlap": 8549,
      "Ġdocumentary": 8550,
      "ĠHunan": 8551,
      "Ġà¦ĭà¦£": 8552,
      "à®°à®¤à®®à®°": 8553,
      "bernetics": 8554,
      "Ġà§¯à§Ńà§®": 8555,
      "ĠBaldwin": 8556,
      "ĠRostamani": 8557,
      "%à¥¤": 8558,
      "CS": 8559,
      "DF": 8560,
      "ET": 8561,
      "FC": 8562,
      "LEC": 8563,
      "bi": 8564,
      "car": 8565,
      "cks": 8566,
      "chen": 8567,
      "ders": 8568,
      "lan": 8569,
      "light": 8570,
      "uz": 8571,
      "vo": 8572,
      "ville": 8573,
      "zona": 8574,
      "à·": 8575,
      "à½": 8576,
      "ĠÅ": 8577,
      "Ġ...": 8578,
      "à¦°à¦ľà¦¨": 8579,
      "à¦°à¦Ĺà¦¤": 8580,
      "à¦¿+": 8581,
      "à¦¿à¦ĥ": 8582,
      "à°¿;": 8583,
      "à®Łà®ķà®®": 8584,
      "à¤¨à¤¬": 8585,
      "à¦¨à¦ľ": 8586,
      "à±ģ/": 8587,
      "à²°à²¥à²®": 8588,
      "à®©à®¨": 8589,
      "à¦¯à¦ĩ": 8590,
      "à²¾.": 8591,
      "à¤¯à¤µà¤¤": 8592,
      "à¦ķà¦ļ": 8593,
      "à¦¤à¦¶": 8594,
      "à¤¸à¤ķà¤°": 8595,
      "à¦²à¦²": 8596,
      "Ġtaking": 8597,
      "Ġtropical": 8598,
      "à¦¼:": 8599,
      "Ġaud": 8600,
      "à²¯à²¯à²¨": 8601,
      "à°¤à°¤": 8602,
      "Ġà¦¸à¦¡": 8603,
      "Ġà¤ľà¤¯à¤¦": 8604,
      "Ġà®¤à®³à®®": 8605,
      "Ġà®ĩà®³à®®": 8606,
      "à¦¦à¦²": 8607,
      "enge": 8608,
      "atab": 8609,
      "arily": 8610,
      "Ġour": 8611,
      "Ġwide": 8612,
      "Ġwinning": 8613,
      "alition": 8614,
      "itch": 8615,
      "à²¡à²ķ": 8616,
      "à¦¶à¦¤": 8617,
      "Ġfar": 8618,
      "Ġfood": 8619,
      "à¯ĭ-": 8620,
      "Ġà¤īà¤ķ": 8621,
      "Ġà¤Ķà¤·à¤§": 8622,
      "Ġpen": 8623,
      "Ġà¦¤à¦°": 8624,
      "Ġà¦¤à¦¦à¦¨": 8625,
      "Ġà²ħà²³à²µà²¡": 8626,
      "ĠSum": 8627,
      "à¦ļà¦°": 8628,
      "ĠAth": 8629,
      "Ġà¤ĩà¤ļ": 8630,
      "à¦£à¦¬": 8631,
      "ĠCast": 8632,
      "ĠCult": 8633,
      "ĠCreek": 8634,
      "à¦¼à¦¾à¥¤": 8635,
      "Ġ1911": 8636,
      "à¤ıà¤Ł": 8637,
      "Ġmust": 8638,
      "Ġdon": 8639,
      "Ġdoll": 8640,
      "Ġdropp": 8641,
      "Ġà®İà®²à®ķ": 8642,
      "ĠMot": 8643,
      "ĠMik": 8644,
      "ameter": 8645,
      "à²¹à²µà²¨": 8646,
      "Ġà¤ļà¤¯à¤¨": 8647,
      "ĠPa": 8648,
      "ĠPublic": 8649,
      "ivity": 8650,
      "Ġà²Ĩà²ļà²°": 8651,
      "Ġà²Ĩà²ļà²°à²£": 8652,
      "urp": 8653,
      "uries": 8654,
      "ĠData": 8655,
      "irit": 8656,
      "Ġforest": 8657,
      "Ġneg": 8658,
      "ĠGi": 8659,
      "Ġthough": 8660,
      "raight": 8661,
      "ĠFred": 8662,
      "ĠFBI": 8663,
      "à¤ĩà¤ª": 8664,
      "ulf": 8665,
      "umar": 8666,
      "ĠJud": 8667,
      "agn": 8668,
      "Ġà²ľà²²": 8669,
      "Ġstage": 8670,
      "Ġstyle": 8671,
      "acing": 8672,
      "ĠInc": 8673,
      "ills": 8674,
      "à¤ľà¤¨à¤ķ": 8675,
      "Ġrating": 8676,
      "Ġrank": 8677,
      "Ġà¦§à¦°à¦£": 8678,
      "Ġà®°à®ķ": 8679,
      "undred": 8680,
      "Ġà¤ĩà¤¨à¤ª": 8681,
      "Ġ85": 8682,
      "Ġchap": 8683,
      "Ġà¤ĵà¤¨à¤¯": 8684,
      "Ġà¥§à¥ª": 8685,
      "Ġleaving": 8686,
      "à¦ĩà¦¨à¦¬": 8687,
      "Ġunivers": 8688,
      "à§«à§¬": 8689,
      "Ġà¤ĳà¤°": 8690,
      "Ġclos": 8691,
      "Ġwheel": 8692,
      "à§ªà§®": 8693,
      "ĠYoung": 8694,
      "Ġrob": 8695,
      "achal": 8696,
      "Ġà°ķà°²à°¦": 8697,
      "Ġ140": 8698,
      "ĠSciences": 8699,
      "Ġà¦īà§İà¦ªà¦¤": 8700,
      "Ġofficer": 8701,
      "Ġ1933": 8702,
      "Ġ1938": 8703,
      "Ġcommit": 8704,
      "Ġà°®à°¹à°¬": 8705,
      "1990": 8706,
      "à¥¨à¥¦à¥": 8707,
      "Ġattended": 8708,
      "Ġà²ĸà²¨": 8709,
      "à§§à§¯à§©": 8710,
      "à§§à§¯à§¬": 8711,
      "ĠDef": 8712,
      "ocked": 8713,
      "overnor": 8714,
      "ĠForestry": 8715,
      "Ġorganized": 8716,
      "Ġà¦Ĳà¦ķ": 8717,
      "Ġà®īà®¯à®°à®¤": 8718,
      "Ġ1906": 8719,
      "Ġaccount": 8720,
      "Ġà§§à§¯à§Ńà§©": 8721,
      "Ġà§§à§¯à§Ńà§ª": 8722,
      "Ġended": 8723,
      "byn": 8724,
      "spaper": 8725,
      "Ġà²ĺà²Łà²ķ": 8726,
      "Ġmembership": 8727,
      "Ġappearances": 8728,
      "ealand": 8729,
      "Ġà¤ĭà¤Ĺ": 8730,
      "à¤²à¤Ĺà¤Ńà¤Ĺ": 8731,
      "racks": 8732,
      "Ġgrant": 8733,
      "Ġdiff": 8734,
      "Ġoccur": 8735,
      "ĠStudies": 8736,
      "Ġindustry": 8737,
      "Ġcultural": 8738,
      "Ġcandidate": 8739,
      "Ġcollabor": 8740,
      "ĠServices": 8741,
      "ĠCongo": 8742,
      "ĠValley": 8743,
      "Ġà¤Ĩà¤¯à¤°à¤²": 8744,
      "Ġindividuals": 8745,
      "ĠMoscow": 8746,
      "Ġvoice": 8747,
      "Ġcalendar": 8748,
      "Ġà²¦à²¶à²ķà²¦à²²": 8749,
      "Ġadopted": 8750,
      "Ġmissing": 8751,
      "Ġproperty": 8752,
      "hematics": 8753,
      "encies": 8754,
      "Ġdetermin": 8755,
      "Ġcaused": 8756,
      "ĠMuslim": 8757,
      "Ġmobil": 8758,
      "ispad": 8759,
      "Ġrelationship": 8760,
      "ĠTeleplay": 8761,
      "Ġfederal": 8762,
      "ĠPublishing": 8763,
      "ĠBrazil": 8764,
      "ĠLieutenant": 8765,
      "ĠDavey": 8766,
      "'.": 8767,
      "82": 8768,
      "84": 8769,
      "AA": 8770,
      "Amer": 8771,
      "CD": 8772,
      "CR": 8773,
      "Files": 8774,
      "IP": 8775,
      "NO": 8776,
      "],": 8777,
      "can": 8778,
      "ga": 8779,
      "gal": 8780,
      "house": 8781,
      "ja": 8782,
      "log": 8783,
      "pson": 8784,
      "rence": 8785,
      "tar": 8786,
      "tourism": 8787,
      "vis": 8788,
      "Ġå": 8789,
      "Ġ....": 8790,
      "ĠÙħ": 8791,
      "ĭâĢĭ": 8792,
      "à³į),": 8793,
      "à±įâĢĵ": 8794,
      "à°¾-": 8795,
      "à®¾\"": 8796,
      "à¤¨à¤Ī": 8797,
      "à°°à°¶": 8798,
      "à®ªà®ķà®®": 8799,
      "à²°à²Ĺà²¤": 8800,
      "à®®à®Ł": 8801,
      "à²¦à²µà²¨": 8802,
      "à¤²à¤¹": 8803,
      "à²²à²Ńà²µ": 8804,
      "à¦¬à¦§": 8805,
      "à¦¬à¦¬à¦°": 8806,
      "inet": 8807,
      "Ġà¤ªà¤¥": 8808,
      "Ġà¤ªà¤Łà¤¨": 8809,
      "à°ķà°²à°¨": 8810,
      "à¤µà¤Ń": 8811,
      "à¦¸à¦ľ": 8812,
      "à¦Łà¦«à¦°": 8813,
      "Ġà®®à®¨": 8814,
      "Ġà®®à®ŀ": 8815,
      "à¤¦à¤¤": 8816,
      "à®¨à®Ł": 8817,
      "à²³à²¨": 8818,
      "à°Ĺà°ª": 8819,
      "Ġà¤¨à¤¹à¤°": 8820,
      "Ġwood": 8821,
      "à¥Ĥ.": 8822,
      "Ġsaw": 8823,
      "Ġsister": 8824,
      "Ġschol": 8825,
      "à°ªà°°à°®": 8826,
      "à¤¡à¤ķ": 8827,
      "à§Ģ-": 8828,
      "Ġà°¸à°Ĺ": 8829,
      "Ġà²®à²ł": 8830,
      "Ġfre": 8831,
      "à²Łà²¡à²¦": 8832,
      "Ġcities": 8833,
      "à²®à²µà²¨": 8834,
      "Ġà®¨à®°": 8835,
      "Ġà®¨à®¨": 8836,
      "à¤ļà¤®": 8837,
      "à¤ļà¤°à¤£": 8838,
      "Ġà¤Ĺà¤²": 8839,
      "icult": 8840,
      "asan": 8841,
      "à¦ĩà¦¥": 8842,
      "Ġball": 8843,
      "Ġbank": 8844,
      "Ġpage": 8845,
      "Ġpaint": 8846,
      "ĠSa": 8847,
      "ĠSev": 8848,
      "ĠSyd": 8849,
      "ĠSaint": 8850,
      "Ġà¤¤à¤ªà¤¸": 8851,
      "à²ªà²ķà²°": 8852,
      "rown": 8853,
      "Ġà¤Ĩà¤ªà¤¨": 8854,
      "Ġà°ħà°ļ": 8855,
      "Ġà¦Ĩà¦ªà¦¨": 8856,
      "ĠAh": 8857,
      "ĠCook": 8858,
      "ĠTo": 8859,
      "Ġtour": 8860,
      "Ġà¤¯à¤¥": 8861,
      "level": 8862,
      "Ġ1914": 8863,
      "Ġmoa": 8864,
      "à²£à²¨": 8865,
      "ĠMah": 8866,
      "Ġà°ļà°²": 8867,
      "à²·à²Ĺà²³à²²": 8868,
      "standing": 8869,
      "Ġà°¦à°¶": 8870,
      "olk": 8871,
      "à²¹à²µ": 8872,
      "à²¹à²Ĺà²³": 8873,
      "ĠBuch": 8874,
      "ĠBBC": 8875,
      "ĠBishop": 8876,
      "chi": 8877,
      "Ġà²°à²«": 8878,
      "Ġlink": 8879,
      "Ġlabor": 8880,
      "ĠRa": 8881,
      "ĠRel": 8882,
      "Ġà°¬à°ľ": 8883,
      "ĠDub": 8884,
      "ĠDark": 8885,
      "Ġà®Ĵà®±": 8886,
      "Ġà§§à§§à§": 8887,
      "ĠLittle": 8888,
      "ĠGar": 8889,
      "ĠNa": 8890,
      "otics": 8891,
      "Ġeither": 8892,
      "utch": 8893,
      "ĠFund": 8894,
      "ĠFord": 8895,
      "Ġà¦¸à¦®à¦Ĺ": 8896,
      "à¦īà¦ĩ": 8897,
      "à°Ńà°Ł": 8898,
      "ema": 8899,
      "à¤ĩà¤°": 8900,
      "à¤ĩà¤¨à¤°": 8901,
      "Ġà¦²à¦¡": 8902,
      "à§¦à§ª": 8903,
      "à¦ıà¦ķà¦Ł": 8904,
      "Ġà²īà²¬": 8905,
      "Ġà²īà²ļ": 8906,
      "Ġà²¶à²¸": 8907,
      "ĠKit": 8908,
      "ĠKur": 8909,
      "ĠKonst": 8910,
      "Ġà¦ĸà¦£": 8911,
      "Ġà²Ĵà²£à²Ĺ": 8912,
      "occer": 8913,
      "Ġanti": 8914,
      "Ġconv": 8915,
      "à¤¾à¤ģ,": 8916,
      "Ġsevent": 8917,
      "aining": 8918,
      "bert": 8919,
      "ĠStation": 8920,
      "Ġà®ªà®Łà®ķ": 8921,
      "alled": 8922,
      "à°ĸà°ªà°Ł": 8923,
      "à²°à²µà²¹": 8924,
      "ellig": 8925,
      "ĠâĢĭâĢĭ": 8926,
      "Ġà¤ĵà¤Ł": 8927,
      "Ġà¤ĵà¤ľ": 8928,
      "Ġexc": 8929,
      "Ġexcept": 8930,
      "Ġ1500": 8931,
      "Ġà¦īà¦ªà¦¤": 8932,
      "Ġà®ħà®°à®ļà®°": 8933,
      "à¦°à¦¥à¦®à¦¬": 8934,
      "Ġà¤ĳà¤Ł": 8935,
      "rying": 8936,
      "à¤¯à¤¤à¤¨": 8937,
      "Ġà°ıà°¦": 8938,
      "à®Ĩà®µà®¤": 8939,
      "à¦ĺà¦°à¦Ł": 8940,
      "Ġà¤ķà¤®à¤°": 8941,
      "à¤¦à¤°à¤Ĺ": 8942,
      "à§®à§«": 8943,
      "Ġà²ľà²¨à²µà²°": 8944,
      "ibre": 8945,
      "text": 8946,
      "Ġà²Łà²°": 8947,
      "à°µà°¤à°²": 8948,
      "Ġà¤Ĭà¤·": 8949,
      "Ġà¤ħà¤ªà¤¶à¤¬": 8950,
      "157": 8951,
      "ĠShort": 8952,
      "Ġuses": 8953,
      "oint": 8954,
      "Ġdespite": 8955,
      "Ġà²ĸà²°": 8956,
      "Ġà§§à§®à§Ń": 8957,
      "Ġà¦ħà¦¸à¦®": 8958,
      "anned": 8959,
      "annel": 8960,
      "Ġ1924": 8961,
      "Ġ1925": 8962,
      "à®ħà®¤": 8963,
      "Ġconsist": 8964,
      "Ġà§§à§¯à§Ńà§§": 8965,
      "Ø§ÙĨ": 8966,
      "ĠEngine": 8967,
      "Ġà§¬à§¦": 8968,
      "Ġà®īà®²à®ķà®³": 8969,
      "ĠAtl": 8970,
      "Ġnumerous": 8971,
      "Ġà§§à§¯à§©à§®": 8972,
      "ĠReport": 8973,
      "Ġsubject": 8974,
      "Ġdoes": 8975,
      "à²Ĩà²ķ": 8976,
      "ĠOrder": 8977,
      "Ð°Ð½": 8978,
      "Ġbrown": 8979,
      "ĠBrig": 8980,
      "ĠCoast": 8981,
      "struction": 8982,
      "Ġà°¬à°¯à°Ł": 8983,
      "ĠColumb": 8984,
      "ĠÃĹ": 8985,
      "ĠHarv": 8986,
      "ĠCorbyn": 8987,
      "Ġattacked": 8988,
      "ĠCharl": 8989,
      "Ġrunning": 8990,
      "Ġà®ĩà®³à®µà®°": 8991,
      "Ġmanaged": 8992,
      "sky": 8993,
      "Ġoccup": 8994,
      "ĠWilliams": 8995,
      "oviÄĩ": 8996,
      "Ġà®Ĭà®Łà®ķà®®": 8997,
      "Ġà®Ĭà®Łà®ķà®¤": 8998,
      "Ġengineering": 8999,
      "Ġsquadrons": 9000,
      "ĠChampionships": 9001,
      "ĠCongress": 9002,
      "Ġhigher": 9003,
      "ĠEvans": 9004,
      "Ġconfir": 9005,
      "ĠDemocratic": 9006,
      "Ġlocomotive": 9007,
      "Ġprimary": 9008,
      "ĠGarden": 9009,
      "×Ļ×": 9010,
      "ĠArizona": 9011,
      "ĠEthiop": 9012,
      "climategraph": 9013,
      "Ġinstitutions": 9014,
      "Ġmountain": 9015,
      "ĠOhio": 9016,
      "ĠSteam": 9017,
      "American": 9018,
      "ĠKonstantin": 9019,
      "climategraphics": 9020,
      "</": 9021,
      "Cl": 9022,
      "Man": 9023,
      "RT": 9024,
      "].": 9025,
      "bourn": 9026,
      "den": 9027,
      "gar": 9028,
      "ios": 9029,
      "king": 9030,
      "pir": 9031,
      "pec": 9032,
      "tm": 9033,
      "wan": 9034,
      "{{": 9035,
      "à©": 9036,
      "åŃ": 9037,
      "Ġ),": 9038,
      "Ġiron": 9039,
      "à²ı": 9040,
      "Ġà¦Ī": 9041,
      "à¤°à¤ļà¤²": 9042,
      "à¯ģ),": 9043,
      "à±į'": 9044,
      "à®Łà®²à®®": 9045,
      "à®¾-": 9046,
      "à¤¨à¤¬à¤°": 9047,
      "à°¨à°Ĺ": 9048,
      "à¦ķà¦ľ": 9049,
      "à²¤à²ªà²¡": 9050,
      "à³Ĩ-": 9051,
      "à¦¬à¦ľ": 9052,
      "à¦¬à¦ľà¦¨": 9053,
      "Ġaim": 9054,
      "inct": 9055,
      "à²µà²§": 9056,
      "à¦®à¦«": 9057,
      "oni": 9058,
      "à²ķà²µà²¨": 9059,
      "à¤ªà¤¡": 9060,
      "à°Łà°¬à°¡": 9061,
      "Ġà®¤à®ļ": 9062,
      "organ": 9063,
      "à¦¦à¦£": 9064,
      "anz": 9065,
      "eds": 9066,
      "Ġà®ħà®Łà®°": 9067,
      "Ġà®ħà®ŀ": 9068,
      "ato": 9069,
      "Ġà¤¨à¤²": 9070,
      "Ġwestern": 9071,
      "Ġà¤¬à¤Ł": 9072,
      "Ġsaf": 9073,
      "Ġsaying": 9074,
      "iti": 9075,
      "iteration": 9076,
      "à²¡à²¬": 9077,
      "Ġà¦¹à¦¸": 9078,
      "Ġinteg": 9079,
      "Ġcred": 9080,
      "Ġcars": 9081,
      "à¤§à¤µ": 9082,
      "à¤§à¤ª": 9083,
      "rem": 9084,
      "à²®à²ª": 9085,
      "à¤ļà¤¤à¤®": 9086,
      "Ġbur": 9087,
      "Ġà²ķà²¦à²¨": 9088,
      "Ġpot": 9089,
      "Ġpeak": 9090,
      "Ġà¦¤à¦®": 9091,
      "Ġà°®à°³": 9092,
      "Ġà®Ĩà®µà®¤": 9093,
      "ĠSA": 9094,
      "ĠSar": 9095,
      "ĠSur": 9096,
      "ĠSig": 9097,
      "ĠSedd": 9098,
      "Ġà¤Ĩà¤¯à¤¨": 9099,
      "Ġà¤Ĩà¤ªà¤¸": 9100,
      "Ġà°¨à°°à°¸": 9101,
      "à¥Īà¥¤\"": 9102,
      "Ġà°ħà°¹": 9103,
      "ĠAk": 9104,
      "à¦£à¦®": 9105,
      "ĠCur": 9106,
      "ĠChem": 9107,
      "ĠChess": 9108,
      "ĠCispad": 9109,
      "ĠTem": 9110,
      "Ġà²¹à²¦": 9111,
      "Ġà²¹à²£à²µà²¨": 9112,
      "Ġà®īà®´": 9113,
      "Ġ1900": 9114,
      "Ġmm": 9115,
      "Ġdu": 9116,
      "Ġdate": 9117,
      "Ġdance": 9118,
      "Ġdrain": 9119,
      "Ġdivision": 9120,
      "ĠMost": 9121,
      "ĠMount": 9122,
      "ils": 9123,
      "Ġà°ļà°Ł": 9124,
      "omm": 9125,
      "à°¬à°²": 9126,
      "oles": 9127,
      "ĠBah": 9128,
      "ĠPower": 9129,
      "ads": 9130,
      "Ġà°ľà°¯": 9131,
      "Ġliterature": 9132,
      "ĠDiction": 9133,
      "irt": 9134,
      "Ġà¦ĵà¦ĩ": 9135,
      "Ġà¦ĵà¦ľà¦¨": 9136,
      "Ġreason": 9137,
      "iments": 9138,
      "ĠLt": 9139,
      "ĠLord": 9140,
      "ĠLater": 9141,
      "ĠLIS": 9142,
      "à§ĩà¥¤\"": 9143,
      "Ġà¤«à¤²à¤¸": 9144,
      "ĠNob": 9145,
      "à¤¤à¤°à¤¦": 9146,
      "ota": 9147,
      "Ġthreat": 9148,
      "Ġever": 9149,
      "Ġà²İà²£": 9150,
      "à¦īà¦ĩà¦ķ": 9151,
      "à²¥à²¨": 9152,
      "Ġgun": 9153,
      "ĠWal": 9154,
      "ĠWik": 9155,
      "Ġà¤ĸà¤¨": 9156,
      "à®¯à®²à®®": 9157,
      "ules": 9158,
      "uma": 9159,
      "Ġà°Ńà°°": 9160,
      "Ġstations": 9161,
      "Ġ53": 9162,
      "ĠInn": 9163,
      "ĠKa": 9164,
      "ĠKid": 9165,
      "oper": 9166,
      "opal": 9167,
      "ocated": 9168,
      "à¦ŀà¦¤": 9169,
      "Ġà²Īà²¤à²¨": 9170,
      "à¦Ļà¦²": 9171,
      "à²¤à²°à²¦à²²": 9172,
      "earcher": 9173,
      "akers": 9174,
      "Ġ1864": 9175,
      "Ġà°ħà°¨à°Ĺ": 9176,
      "à®ľà®ª": 9177,
      "Ġrad": 9178,
      "à§¨à§¨": 9179,
      "à¦°à¦¸à¦¨": 9180,
      "Ġà²ªà²°à²¸": 9181,
      "Ġà°«à°²": 9182,
      "à²°à²£à²ķ": 9183,
      "à¤ħà¤²": 9184,
      "à¦ĺà¦Ł": 9185,
      "à§ªà§¦": 9186,
      "Ġà®Ĳà®ª": 9187,
      "ressed": 9188,
      "teen": 9189,
      "Ġà²Łà²¨": 9190,
      "Ġsched": 9191,
      "azz": 9192,
      "à®¤à®ķà®Ļ": 9193,
      "Ġagg": 9194,
      "ĠNews": 9195,
      "Ġà°ħà°µà°ķ": 9196,
      "ĠScient": 9197,
      "Ġà²ħà²ªà²ķà²°": 9198,
      "à§¯à§¦": 9199,
      "Ġ1932": 9200,
      "Ġ1935": 9201,
      "Ġà¦Ĩà¦®à¦²": 9202,
      "ĠShow": 9203,
      "ails": 9204,
      "prises": 9205,
      "à°°à°¹à°£": 9206,
      "Ġà¦ıà¦²à¦ľ": 9207,
      "Ġelections": 9208,
      "othing": 9209,
      "à§§à§¯à§«": 9210,
      "Ġà°ħà°®à°°": 9211,
      "Ġà°ħà°®à°²": 9212,
      "Ġregister": 9213,
      "Ġbetter": 9214,
      "ĠLee": 9215,
      "ĠCommunity": 9216,
      "Ġà³§à³¯à³«": 9217,
      "hens": 9218,
      "ancer": 9219,
      "Ġprison": 9220,
      "Ġ1904": 9221,
      "Ġeditor": 9222,
      "Ġà§§à§¯à§®à§®": 9223,
      "Ġà§§à§¯à§®à§¯": 9224,
      "Ġà°Ĳà°¸": 9225,
      "Ġà®īà®²à®ķà®®": 9226,
      "Ġà®īà®²à®ķà®¤": 9227,
      "ĠRepublican": 9228,
      "ĠClass": 9229,
      "inney": 9230,
[...]
